{
  "<EOS>": 0,
  "<GO>": 1,
  "<UNK>": 10171,
  "appropriations": 3,
  "Wiederauf@@": 4,
  "beliebt": 5,
  "wirkungen": 6,
  "menten": 7,
  "meter": 8,
  "einziges": 9,
  "Schne@@": 10,
  "derjenigen": 11,
  "Meg@@": 12,
  "gesetzte": 13,
  "OK": 14,
  "geführten": 15,
  "harte": 16,
  "straßen": 17,
  "digit@@": 18,
  "Gü@@": 19,
  "getestet": 20,
  "flexi@@": 21,
  "orten": 22,
  "rats": 23,
  "Variante": 24,
  "plant": 25,
  "Dikt@@": 26,
  "Laser@@": 27,
  "haltenen": 28,
  "partner": 29,
  "AK@@": 30,
  "Lebensqualität": 31,
  "Whirlpool": 32,
  "Regimes": 33,
  "inhal@@": 34,
  "ausgearbeitet": 35,
  "warmen": 36,
  "vermis@@": 37,
  "Mode": 38,
  "langjährige": 39,
  "Verkäufer": 40,
  "aci@@": 41,
  "beider": 42,
  "frequ@@": 43,
  "sle@@": 44,
  "ungsh@@": 45,
  "Analysen": 46,
  "bewaff@@": 47,
  "Sozialdemokraten": 48,
  "Atlan@@": 49,
  "militär@@": 50,
  "Governance": 51,
  "schreck@@": 52,
  "71": 53,
  "Zubehör": 54,
  "Cra@@": 55,
  "verschmutzung": 56,
  "first": 57,
  "Überra@@": 58,
  "Main": 59,
  "Jur@@": 60,
  "verleiht": 61,
  "verständ@@": 62,
  "itäten": 63,
  "wunderbare": 64,
  "immer@@": 65,
  "Ausübung": 66,
  "leidung": 67,
  "Sper@@": 68,
  "glücklich": 69,
  "wozu": 70,
  "unterliegt": 71,
  "porte@@": 72,
  "Einzelnen": 73,
  "Konsultation": 74,
  "lück@@": 75,
  "Virus": 76,
  "niederländischen": 77,
  "trock@@": 78,
  "Central": 79,
  "58": 80,
  "ernste": 81,
  "Tagungs@@": 82,
  "regelmäßigen": 83,
  "Gitar@@": 84,
  "Währ@@": 85,
  "islam@@": 86,
  "pol": 87,
  "veranstaltungen": 88,
  "Unterdrückung": 89,
  "Eigentümer": 90,
  "sprü@@": 91,
  "Eine": 92,
  "wechselt": 93,
  "Gewi@@": 94,
  "antrag": 95,
  "hungen": 96,
  "vorherigen": 97,
  "Sand": 98,
  "Weihnachts@@": 99,
  "Free@@": 100,
  "MP3": 101,
  "ruppen": 102,
  "allo": 103,
  "kenntnisse": 104,
  "sexuellen": 105,
  "Wiener": 106,
  "multination@@": 107,
  "Seg@@": 108,
  "schaff@@": 109,
  "Mem@@": 110,
  "traum": 111,
  "zusprechen": 112,
  "Servic@@": 113,
  "Mani@@": 114,
  "zerstör@@": 115,
  "Rob@@": 116,
  "diverse": 117,
  "einzuhalten": 118,
  "Justiz@@": 119,
  "set@@": 120,
  "Investition": 121,
  "Ost": 122,
  "beizutragen": 123,
  "Pir@@": 124,
  "Human@@": 125,
  "wofür": 126,
  "einmalige": 127,
  "Neuigkeiten": 128,
  "weiterzu@@": 129,
  "Bildschir@@": 130,
  "refle@@": 131,
  "ämpf@@": 132,
  "LE": 133,
  "Prozent@@": 134,
  "ruhen": 135,
  "Cer@@": 136,
  "klarer": 137,
  "europa": 138,
  "Intervention": 139,
  "breites": 140,
  "gegenseitige": 141,
  "Taus@@": 142,
  "chem@@": 143,
  "sonstigen": 144,
  "Ali@@": 145,
  "Anhang": 146,
  "Vers@@": 147,
  "geho@@": 148,
  "unterhalten": 149,
  "KO@@": 150,
  "führender": 151,
  "malerischen": 152,
  "pot": 153,
  "6,@@": 154,
  "ix": 155,
  "Schil@@": 156,
  "minist@@": 157,
  "frag@@": 158,
  "92": 159,
  "zweifel@@": 160,
  "Aktien": 161,
  "Dienst@@": 162,
  "esslich": 163,
  "ques": 164,
  "Cent@@": 165,
  "Reihenfolge": 166,
  "Fischer@@": 167,
  "aufwand": 168,
  "bricht": 169,
  "Streit@@": 170,
  "Bit": 171,
  "manu@@": 172,
  "unweit": 173,
  "Konflikt@@": 174,
  "öhnt": 175,
  "Baby@@": 176,
  "beträchtliche": 177,
  "beizu@@": 178,
  "beseitigt": 179,
  "urg@@": 180,
  "Tragödie": 181,
  "nbsp": 182,
  "herunter": 183,
  "Aufwand": 184,
  "zuge@@": 185,
  "V.": 186,
  "tou@@": 187,
  "Nahrungs@@": 188,
  "Mazedonien": 189,
  "ols": 190,
  "anne": 191,
  "Zimmerservice": 192,
  "Versand": 193,
  "Leidenschaft": 194,
  "Beruf@@": 195,
  "Release": 196,
  "löst": 197,
  "feiert": 198,
  "err@@": 199,
  "CHF": 200,
  "Malta": 201,
  "frist": 202,
  "Tisch@@": 203,
  "geschlagen": 204,
  "Marketing@@": 205,
  "wolle": 206,
  "Arznei@@": 207,
  "gewisser": 208,
  "Ministerrat": 209,
  "after": 210,
  "votes": 211,
  "Berei@@": 212,
  "Produk@@": 213,
  "della": 214,
  "zips": 215,
  "Ski": 216,
  "Mass@@": 217,
  "immt": 218,
  "entwick@@": 219,
  "beschei@@": 220,
  "easy": 221,
  "Unterhaltungs@@": 222,
  "stunde": 223,
  "asen": 224,
  "Swiss": 225,
  "status": 226,
  "Palästinenser": 227,
  "diplom@@": 228,
  "Berater": 229,
  "zigen": 230,
  "urs@@": 231,
  "Freiwil@@": 232,
  "sendet": 233,
  "wick@@": 234,
  "por": 235,
  "TE": 236,
  "ergi@@": 237,
  "Süd": 238,
  "Güter@@": 239,
  "Dep@@": 240,
  "Kandidaten@@": 241,
  "schlage": 242,
  "ungarischen": 243,
  "projekten": 244,
  "gabe@@": 245,
  "ausgewogenen": 246,
  "erober@@": 247,
  "Key@@": 248,
  "Verz@@": 249,
  "beeinträchtigt": 250,
  "ther": 251,
  "Vorsitzender": 252,
  "Richtlinien@@": 253,
  "ministerium": 254,
  "öffent@@": 255,
  "änger": 256,
  "Mont@@": 257,
  "unan@@": 258,
  "zukunfts@@": 259,
  "Green": 260,
  "personenbezogenen": 261,
  "Amtszeit": 262,
  "Unterstütz@@": 263,
  "glück@@": 264,
  "verbrau@@": 265,
  "kompli@@": 266,
  "Halbinsel": 267,
  "kamera": 268,
  "frische": 269,
  "CE": 270,
  "fisch@@": 271,
  "SI": 272,
  "Ursprung": 273,
  "belegt": 274,
  "ausgewo@@": 275,
  "sprachigen": 276,
  "erschein@@": 277,
  "umfassendes": 278,
  "aufweisen": 279,
  "gerweise": 280,
  "stunden": 281,
  "Klick": 282,
  "Tö@@": 283,
  "statten": 284,
  "Segel@@": 285,
  "Freund@@": 286,
  "Absichten": 287,
  "überlegen": 288,
  "ison@@": 289,
  "nennt": 290,
  "mission": 291,
  "lis": 292,
  "Que@@": 293,
  "Regionalpolitik": 294,
  "denselben": 295,
  "ellem": 296,
  "rücken": 297,
  "schlech@@": 298,
  "expor@@": 299,
  "Aufforderung": 300,
  "stößt": 301,
  "Ernährung": 302,
  "optimalen": 303,
  "agne": 304,
  "funden": 305,
  "jähriger": 306,
  "Premium": 307,
  "Flotte": 308,
  "rasche": 309,
  "zurückkehren": 310,
  "Zuständigkeiten": 311,
  "Quoten": 312,
  "Resolution": 313,
  "gleicher": 314,
  "Ostsee": 315,
  "Beschäftig@@": 316,
  "runden": 317,
  "ran": 318,
  "auseinander": 319,
  "Sorgfalt": 320,
  "kör@@": 321,
  "Award": 322,
  "Armen": 323,
  "artige": 324,
  "Blick@@": 325,
  "fran@@": 326,
  "heu@@": 327,
  "gerichtete": 328,
  "einzubeziehen": 329,
  "Merk@@": 330,
  "Aufträge": 331,
  "Arbeitnehmer@@": 332,
  "Kernkraft@@": 333,
  "schiff": 334,
  "Haushaltsplans": 335,
  "bon@@": 336,
  "mengen": 337,
  "sied@@": 338,
  "Nat@@": 339,
  "proje@@": 340,
  "Finanzmittel": 341,
  "ritten": 342,
  "Gam@@": 343,
  "Taxi": 344,
  "mitzu@@": 345,
  "mündliche": 346,
  "gänger": 347,
  "äufe": 348,
  "benutzer@@": 349,
  "UNESCO": 350,
  "dazu@@": 351,
  "bedingt": 352,
  "gebilligt": 353,
  "univer@@": 354,
  "Bern@@": 355,
  "emm@@": 356,
  "Passagi@@": 357,
  "oc@@": 358,
  "rem": 359,
  "Kapit@@": 360,
  "Erzeuger": 361,
  "fried@@": 362,
  "schaden": 363,
  "Zurück@@": 364,
  "beiträgt": 365,
  "Sul@@": 366,
  "Gö@@": 367,
  "Datenbanken": 368,
  "aufgehoben": 369,
  "Real@@": 370,
  "aufeinander": 371,
  "bewe@@": 372,
  "Übereinkommens": 373,
  "gegenseitig": 374,
  "Gewerkschaften": 375,
  "deutsch": 376,
  "ament": 377,
  "hell": 378,
  "Ton": 379,
  "ests": 380,
  "prü@@": 381,
  "antwor@@": 382,
  "Russ@@": 383,
  "alli@@": 384,
  "deutet": 385,
  "Schmu@@": 386,
  "bö@@": 387,
  "Abschluß": 388,
  "Wes@@": 389,
  "Fertigung": 390,
  "ile": 391,
  "Mah@@": 392,
  "nette": 393,
  "Voraus": 394,
  "Entschließungs@@": 395,
  "Gir@@": 396,
  "bekanntesten": 397,
  "Kul@@": 398,
  "bank@@": 399,
  "freundlicher": 400,
  "Golfplatz": 401,
  "Frage@@": 402,
  "Wochen@@": 403,
  "Heran@@": 404,
  "Anhänger": 405,
  "drehen": 406,
  "Gegenstände": 407,
  "Statistik": 408,
  "thin": 409,
  "Eink@@": 410,
  "haftet": 411,
  "fluss": 412,
  "Champ@@": 413,
  "Board": 414,
  "womit": 415,
  "kopieren": 416,
  "nä@@": 417,
  "bte": 418,
  "Wü@@": 419,
  "droht": 420,
  "konz@@": 421,
  "normal": 422,
  "Instrumenten": 423,
  "lette": 424,
  "zier@@": 425,
  "gesundheits@@": 426,
  "passenden": 427,
  "deu@@": 428,
  "geschwindigkeit": 429,
  "unvergesslichen": 430,
  "New@@": 431,
  "ac": 432,
  "Gastfreundschaft": 433,
  "ethnischen": 434,
  "Salzburg": 435,
  "wirtschafts@@": 436,
  "Kopie": 437,
  "verglichen": 438,
  "wus@@": 439,
  "üben": 440,
  "schaf@@": 441,
  "effektiver": 442,
  "detailli@@": 443,
  "Vorbereitungen": 444,
  "TS": 445,
  "gesellschaftliche": 446,
  "Luxus@@": 447,
  "Pack": 448,
  "ängen": 449,
  "Inhaber": 450,
  "Ari@@": 451,
  "Erfol@@": 452,
  "ice": 453,
  "Feld@@": 454,
  "UND": 455,
  "mäßigkeit": 456,
  "door": 457,
  "FT@@": 458,
  "Fleisch@@": 459,
  "Rock": 460,
  "bildungs@@": 461,
  "verschieben": 462,
  "Kommentar": 463,
  "gäbe": 464,
  "Berichterstattern": 465,
  "versuche": 466,
  "lager": 467,
  "aj@@": 468,
  "dest@@": 469,
  "Ech@@": 470,
  "Montage": 471,
  "genommene": 472,
  "Zug@@": 473,
  "vereinbar@@": 474,
  "Gipfels": 475,
  "Sin@@": 476,
  "App@@": 477,
  "Befehl": 478,
  "ame@@": 479,
  "reiber": 480,
  "ängt": 481,
  "Free": 482,
  "Vista": 483,
  "Dokument@@": 484,
  "gefährlichen": 485,
  "urer": 486,
  "Flüge": 487,
  "Features": 488,
  "Dienstag": 489,
  "Temperaturen": 490,
  "museum": 491,
  "IK@@": 492,
  "Master": 493,
  "völ@@": 494,
  "Haushalte": 495,
  "Mini": 496,
  "Ke@@": 497,
  "Al": 498,
  "Subsidiarität": 499,
  "Dritt@@": 500,
  "gigen": 501,
  "Herrschaft": 502,
  "Moskau": 503,
  "Brit@@": 504,
  "fur@@": 505,
  "knapp@@": 506,
  "Diszipl@@": 507,
  "stän@@": 508,
  "schlechten": 509,
  "dierung": 510,
  "riesige": 511,
  "haush@@": 512,
  "Küchen@@": 513,
  "periode": 514,
  "Tempo": 515,
  "Bewältigung": 516,
  "ökologische": 517,
  "Vorfeld": 518,
  "lagerung": 519,
  "ausführliche": 520,
  "Lösungs@@": 521,
  "Speicher": 522,
  "Verluste": 523,
  "tnis@@": 524,
  "Box": 525,
  "start": 526,
  "Betroffenen": 527,
  "place": 528,
  "servi@@": 529,
  "vorkommen": 530,
  "brenn@@": 531,
  "teilgenommen": 532,
  "Reaktionen": 533,
  "under": 534,
  "füh@@": 535,
  "Besteuerung": 536,
  "Beschäftigten": 537,
  "vermögen": 538,
  "terer": 539,
  "hinein": 540,
  "Bli@@": 541,
  "Wie": 542,
  "ungere@@": 543,
  "ema": 544,
  "institu@@": 545,
  "Europar@@": 546,
  "mmen": 547,
  "Unterzeichnung": 548,
  "OM@@": 549,
  "Scho@@": 550,
  "Schwimmbad": 551,
  "ßer": 552,
  "konta@@": 553,
  "betrag": 554,
  "sicherungen": 555,
  "menü": 556,
  "discher": 557,
  "rechtfertigen": 558,
  "gesunden": 559,
  "strah@@": 560,
  "Internetseite": 561,
  "Tschechischen": 562,
  "dol@@": 563,
  "ania": 564,
  "inieren": 565,
  "loses": 566,
  "bürger": 567,
  "samkeit": 568,
  "ž@@": 569,
  "stritten": 570,
  "best": 571,
  "Beschluß": 572,
  "endem": 573,
  "Hamas": 574,
  "vorhin": 575,
  "engagi@@": 576,
  "53": 577,
  "gekauft": 578,
  "empfin@@": 579,
  "Problem@@": 580,
  "Katastrophen": 581,
  "schneiden": 582,
  "vereinfachen": 583,
  "irgen@@": 584,
  "ball": 585,
  "ignoriert": 586,
  "Erst@@": 587,
  "Aro@@": 588,
  "Ausstellungen": 589,
  "zunehmenden": 590,
  "unterbreitet": 591,
  "kommerzielle": 592,
  "union": 593,
  "verkün@@": 594,
  "außerord@@": 595,
  "Professor": 596,
  "ies": 597,
  "night": 598,
  "blu@@": 599,
  "been": 600,
  "zerti@@": 601,
  "umgekehrt": 602,
  "Konzep@@": 603,
  "kriti@@": 604,
  "wirksamen": 605,
  "forderung": 606,
  "abgesch@@": 607,
  "Quar@@": 608,
  "Orts@@": 609,
  "imp@@": 610,
  "schrittweise": 611,
  "Lehre": 612,
  "Hom@@": 613,
  "unterschie@@": 614,
  "Heimatland": 615,
  "Bun@@": 616,
  "Ausfahrt": 617,
  "geistigen": 618,
  "Lehren": 619,
  "verwaltet": 620,
  "alternative": 621,
  "erheb@@": 622,
  "Gefängnis": 623,
  "stätte": 624,
  "va@@": 625,
  "Zeichn@@": 626,
  "vorange@@": 627,
  "Play@@": 628,
  "Diese": 629,
  "Will@@": 630,
  "Zauber@@": 631,
  "Tourismus@@": 632,
  "gefällt": 633,
  "Lernen": 634,
  "tic@@": 635,
  "unzureichend": 636,
  "web@@": 637,
  "Mitgliedsta@@": 638,
  "einheit": 639,
  "erreichte": 640,
  "interessan@@": 641,
  "io": 642,
  "anlässlich": 643,
  "Kirchen": 644,
  "verpflichten": 645,
  "68": 646,
  "Krisen": 647,
  "stabili@@": 648,
  "zeitig": 649,
  "lusses": 650,
  "VER@@": 651,
  "site": 652,
  "some": 653,
  "Budget": 654,
  "schluss": 655,
  "hef@@": 656,
  "fehler@@": 657,
  "Tee": 658,
  "board": 659,
  "Friedens": 660,
  "59": 661,
  "händler": 662,
  "dnis": 663,
  "ermutigen": 664,
  "entfer@@": 665,
  "rag": 666,
  "Büro@@": 667,
  "Instruments": 668,
  "Eintrag": 669,
  "book": 670,
  "Volk@@": 671,
  "Lasten": 672,
  "Mitglieds@@": 673,
  "Swimmingpool": 674,
  "berufliche": 675,
  "Schutzes": 676,
  "Lich@@": 677,
  "Eigenschaft": 678,
  "niem@@": 679,
  "Eli@@": 680,
  "reibung": 681,
  "inischen": 682,
  "Inkrafttreten": 683,
  "bul@@": 684,
  "gels": 685,
  "unzu@@": 686,
  "geholfen": 687,
  "eingebunden": 688,
  "Tipps": 689,
  "Anhörung": 690,
  "würfe": 691,
  "Außenminister": 692,
  "bru@@": 693,
  "Fir@@": 694,
  "sinn": 695,
  "Arzneimittel": 696,
  "währ@@": 697,
  "Arzt": 698,
  "Point": 699,
  "fik@@": 700,
  "Tun@@": 701,
  "ratifiziert": 702,
  "gemü@@": 703,
  "Onlin@@": 704,
  "endgültig": 705,
  "grüne": 706,
  "Zo@@": 707,
  "freiem": 708,
  "jeweilige": 709,
  "wendungen": 710,
  "gewachsen": 711,
  "negativ": 712,
  "TO@@": 713,
  "star": 714,
  "Subventionen": 715,
  "analyse": 716,
  "fälsch@@": 717,
  "gewe@@": 718,
  "spolitische": 719,
  "hte": 720,
  "lier@@": 721,
  "flie@@": 722,
  "Tech": 723,
  "konsul@@": 724,
  "nähe": 725,
  "TH@@": 726,
  "abhängi@@": 727,
  "All": 728,
  "berühm@@": 729,
  "bst@@": 730,
  "Erkenntnisse": 731,
  "Tochter": 732,
  "Zul@@": 733,
  "befriedi@@": 734,
  "Shi@@": 735,
  "Mobile": 736,
  "engagiert": 737,
  "Party": 738,
  "letztes": 739,
  "daten@@": 740,
  "fizierungs@@": 741,
  "Vir@@": 742,
  "Die@@": 743,
  "anmelden": 744,
  "Wertsch@@": 745,
  "Angel@@": 746,
  "längere": 747,
  "Rand@@": 748,
  "AD": 749,
  "Wahr@@": 750,
  "Kredi@@": 751,
  "dt": 752,
  "Cou@@": 753,
  "vorsitz@@": 754,
  "Textil@@": 755,
  "bedenken": 756,
  "Brau@@": 757,
  "vorbe@@": 758,
  "HT@@": 759,
  "v.": 760,
  "künstler@@": 761,
  "basierend": 762,
  "gesunde": 763,
  "Fli@@": 764,
  "enorm": 765,
  "Hist@@": 766,
  "gebene": 767,
  "grundlegender": 768,
  "bre": 769,
  "mitgeteilt": 770,
  "ungspo@@": 771,
  "itali@@": 772,
  "sur@@": 773,
  "66": 774,
  "genehmigt": 775,
  "anspruchs@@": 776,
  "Weiterbildung": 777,
  "Photo@@": 778,
  "Geschäftsbedingungen": 779,
  "teilten": 780,
  "Sortiment": 781,
  "befürworte": 782,
  "Chem@@": 783,
  "gert": 784,
  "verträ@@": 785,
  "kapazität": 786,
  "bilateralen": 787,
  "ritts@@": 788,
  "iss@@": 789,
  "ausgelegt": 790,
  "Gesprächen": 791,
  "ausgezeich@@": 792,
  "Material@@": 793,
  "aktion": 794,
  "Mehrwertsteuer": 795,
  "Syrien": 796,
  "met": 797,
  "steu@@": 798,
  "Vereinigung": 799,
  "onie": 800,
  "schließ@@": 801,
  "Einwohnern": 802,
  "überwiegend": 803,
  "Abstand": 804,
  "bevorstehenden": 805,
  "Stich@@": 806,
  "Implementierung": 807,
  "vorherige": 808,
  "Rechtsa@@": 809,
  "Logo": 810,
  "Bilanz": 811,
  "stran@@": 812,
  "Gegenwart": 813,
  "Poker@@": 814,
  "irgendwelche": 815,
  "einla@@": 816,
  "ologi@@": 817,
  "Gau@@": 818,
  "Sei@@": 819,
  "Bewegungen": 820,
  "materialien": 821,
  "einzel@@": 822,
  "bie@@": 823,
  "agentur": 824,
  "Ratsvorsitzes": 825,
  "verhäl@@": 826,
  "Univer@@": 827,
  "Nichtraucherzonen": 828,
  "Arbeitsbedingungen": 829,
  "schrieben": 830,
  "haus@@": 831,
  "Medikamente": 832,
  "Referenz@@": 833,
  "Effekte": 834,
  "sitzung": 835,
  "Kanal": 836,
  "ähn@@": 837,
  "Rahmenprogramm": 838,
  "spruch": 839,
  "Index": 840,
  "ura": 841,
  "Ach@@": 842,
  "format": 843,
  "kehrt": 844,
  "analysieren": 845,
  "trauri@@": 846,
  "bewähr@@": 847,
  "Föderation": 848,
  "Nich@@": 849,
  "ille": 850,
  "Hunder@@": 851,
  "Lebensmitteln": 852,
  "jähri@@": 853,
  "tten@@": 854,
  "reservieren": 855,
  "dat": 856,
  "oni": 857,
  "nützliche": 858,
  "morgens": 859,
  "transpar@@": 860,
  "startet": 861,
  "erhol@@": 862,
  "suite": 863,
  "bedauerlicherweise": 864,
  "kennen@@": 865,
  "sigkeit": 866,
  "Pum@@": 867,
  "treff@@": 868,
  "Rande": 869,
  "Autoren": 870,
  "derartigen": 871,
  "Wille": 872,
  "verbesser@@": 873,
  "Panorama": 874,
  "einzelner": 875,
  "keits@@": 876,
  "netze": 877,
  "übersch@@": 878,
  "samen": 879,
  "Beruf": 880,
  "Kongress": 881,
  "Landwirtschafts@@": 882,
  "Konstru@@": 883,
  "einheiten": 884,
  "gelöscht": 885,
  "Vermittlung": 886,
  "Rek@@": 887,
  "Stahl": 888,
  "potenzi@@": 889,
  "Kathedrale": 890,
  "östlichen": 891,
  "würdige": 892,
  "wachsen@@": 893,
  "forderte": 894,
  "russ@@": 895,
  "kritisiert": 896,
  "Qualitä@@": 897,
  "Studien@@": 898,
  "primi@@": 899,
  "erinnere": 900,
  "Unsicherheit": 901,
  "tolle": 902,
  "Güter": 903,
  "ı@@": 904,
  "Ed@@": 905,
  "globaler": 906,
  "schnei@@": 907,
  "Fremdenverkehr": 908,
  "xe": 909,
  "nie@@": 910,
  "vorsichtig": 911,
  "ST": 912,
  "kultur": 913,
  "wenigstens": 914,
  "generi@@": 915,
  "Kün@@": 916,
  "unverbin@@": 917,
  "verschiedensten": 918,
  "beliebten": 919,
  "zukünftig": 920,
  "Flug": 921,
  "not@@": 922,
  "erzielten": 923,
  "übersetzt": 924,
  "größerer": 925,
  "Trends": 926,
  "ausger@@": 927,
  "Offen@@": 928,
  "Kreuz@@": 929,
  "ablen": 930,
  "Kie@@": 931,
  "Automati@@": 932,
  "sorgfäl@@": 933,
  "gewiesen": 934,
  "Dich": 935,
  "par": 936,
  "stü@@": 937,
  "Überarbeitung": 938,
  "©": 939,
  "Gelände": 940,
  "Stadtteil": 941,
  "IV": 942,
  "Litauen": 943,
  "ausgelöst": 944,
  "argum@@": 945,
  "gang@@": 946,
  "reichung": 947,
  "unteren": 948,
  "40@@": 949,
  "gewiss": 950,
  "wichti@@": 951,
  "musik": 952,
  "could": 953,
  "plä@@": 954,
  "Skla@@": 955,
  "Fur@@": 956,
  "pal@@": 957,
  "Glück@@": 958,
  "tigungen": 959,
  "Reak@@": 960,
  "Ansprechpartner": 961,
  "gefolgt": 962,
  "begreifen": 963,
  "errichten": 964,
  "ford": 965,
  "Begriffe": 966,
  "män@@": 967,
  "betrug": 968,
  "hinzuzufügen": 969,
  "Abfälle": 970,
  "Bla@@": 971,
  "rechnung": 972,
  "Porto": 973,
  "Integrations@@": 974,
  "durchgeführten": 975,
  "Account": 976,
  "ditionen": 977,
  "benötigten": 978,
  "bereitstellen": 979,
  "glich@@": 980,
  "Weißbuch": 981,
  "perfe@@": 982,
  "Zwecken": 983,
  "Benach@@": 984,
  "verm@@": 985,
  "gelang": 986,
  "bi": 987,
  "Opfern": 988,
  "sinstru@@": 989,
  "Feri@@": 990,
  "zte": 991,
  "tional": 992,
  "befug@@": 993,
  "parlamentarische": 994,
  "zutiefst": 995,
  "unterstreicht": 996,
  "weisungen": 997,
  "Termine": 998,
  "Ersatz": 999,
  "gelung": 1000,
  "Ereignissen": 1001,
  "gefasst": 1002,
  "wirkung": 1003,
  "cos": 1004,
  "attraktive": 1005,
  "mittlung": 1006,
  "Einblick": 1007,
  "Sz@@": 1008,
  "Christen": 1009,
  "gezielt": 1010,
  "drücke": 1011,
  "Ty@@": 1012,
  "Button": 1013,
  "Verstärkung": 1014,
  "Impf@@": 1015,
  "schulen": 1016,
  "Einwände": 1017,
  "bst": 1018,
  "hinterlassen": 1019,
  "pläne": 1020,
  "unglaub@@": 1021,
  "ø@@": 1022,
  "dä@@": 1023,
  "arium": 1024,
  "Wettbewerb@@": 1025,
  "erstat@@": 1026,
  "weitem": 1027,
  "Spielern": 1028,
  "Workshops": 1029,
  "ypen": 1030,
  "begrenzten": 1031,
  "ktu@@": 1032,
  "zerstören": 1033,
  "Untersuchungs@@": 1034,
  "Blin@@": 1035,
  "Geist@@": 1036,
  "frühere": 1037,
  "Zw@@": 1038,
  "900": 1039,
  "Mit": 1040,
  "Metro": 1041,
  "Loch": 1042,
  "GM@@": 1043,
  "iche": 1044,
  "reit@@": 1045,
  "beliebtesten": 1046,
  "Kühlschrank": 1047,
  "Deine": 1048,
  "ktives": 1049,
  "ritt": 1050,
  "Gebiet@@": 1051,
  "Run@@": 1052,
  "PD@@": 1053,
  "Formel": 1054,
  "Foren": 1055,
  "strategien": 1056,
  "tchen": 1057,
  "begangen": 1058,
  "stische": 1059,
  "aut@@": 1060,
  "Risi@@": 1061,
  "Präsidium": 1062,
  "DO@@": 1063,
  "andem": 1064,
  "laufende": 1065,
  "Ferienhaus": 1066,
  "Ernährungs@@": 1067,
  "Organen": 1068,
  "Wärme": 1069,
  "Auseinandersetzung": 1070,
  "besichtigen": 1071,
  "vermehr@@": 1072,
  "SP": 1073,
  "Commerce": 1074,
  "Palästina": 1075,
  "Thailand": 1076,
  "St": 1077,
  "ages": 1078,
  "mache": 1079,
  "Effektivität": 1080,
  "Fußball": 1081,
  "gelände": 1082,
  "Menü@@": 1083,
  "industrielle": 1084,
  "reformen": 1085,
  "Kommissare": 1086,
  "hi": 1087,
  "dauerhafte": 1088,
  "Entstehung": 1089,
  "gültigen": 1090,
  "agieren": 1091,
  "bestä@@": 1092,
  "Bud@@": 1093,
  "PSE": 1094,
  "gram@@": 1095,
  "Blu@@": 1096,
  "besseres": 1097,
  "Stränden": 1098,
  "Bedingung": 1099,
  "chron@@": 1100,
  "gische": 1101,
  "effektiven": 1102,
  "samer": 1103,
  "AM": 1104,
  "Studios": 1105,
  "Vorredner": 1106,
  "schau": 1107,
  "ori": 1108,
  "Eleganz": 1109,
  "Schiffs@@": 1110,
  "stration": 1111,
  "Rezep@@": 1112,
  "untergraben": 1113,
  "Medizin@@": 1114,
  "geleit@@": 1115,
  "restauri@@": 1116,
  "dan": 1117,
  "American": 1118,
  "landwirtschaftliche": 1119,
  "zulässig": 1120,
  "streit@@": 1121,
  "Ess@@": 1122,
  "konfli@@": 1123,
  "Edi@@": 1124,
  "Überwachungs@@": 1125,
  "EM": 1126,
  "spieler": 1127,
  "ami": 1128,
  "Zit@@": 1129,
  "Infos": 1130,
  "schuldig": 1131,
  "wehr@@": 1132,
  "PH@@": 1133,
  "schwedische": 1134,
  "wuchs": 1135,
  "atorium": 1136,
  "versetzt": 1137,
  "order": 1138,
  "alter@@": 1139,
  "ends": 1140,
  "car": 1141,
  "Wetter@@": 1142,
  "Arbeitsweise": 1143,
  "iets": 1144,
  "Besonderheiten": 1145,
  "halb@@": 1146,
  "reicher": 1147,
  "Banken@@": 1148,
  "wissenschaften": 1149,
  "Brief": 1150,
  "annte": 1151,
  "Oli@@": 1152,
  "ourc@@": 1153,
  "belgischen": 1154,
  "Mailand": 1155,
  "Tat@@": 1156,
  "DA": 1157,
  "Beobachter": 1158,
  "t-": 1159,
  "setzungs@@": 1160,
  "IV@@": 1161,
  "Dur@@": 1162,
  "house": 1163,
  "Berechnung": 1164,
  "geräumigen": 1165,
  "nehmbar": 1166,
  "strö@@": 1167,
  "verknüpft": 1168,
  "streichen": 1169,
  "giert": 1170,
  "inge": 1171,
  "gerechten": 1172,
  "Eth@@": 1173,
  "block@@": 1174,
  "Zwangs@@": 1175,
  "häufiger": 1176,
  "Simbabwe": 1177,
  "sem": 1178,
  "atur": 1179,
  "ables": 1180,
  "kultur@@": 1181,
  "Konzert": 1182,
  "Fitness": 1183,
  "verankert": 1184,
  "schwerer": 1185,
  "ash@@": 1186,
  "iss": 1187,
  "schalter": 1188,
  "effizient@@": 1189,
  "glücklicherweise": 1190,
  "Zulassung": 1191,
  "entran@@": 1192,
  "Integrität": 1193,
  "Konflikts": 1194,
  "Campingplatz": 1195,
  "ř@@": 1196,
  "achte": 1197,
  "einsei@@": 1198,
  "verhältnis": 1199,
  "gal@@": 1200,
  "Rechtsan@@": 1201,
  "Konkur@@": 1202,
  "gewann": 1203,
  "wickelt": 1204,
  "ühle": 1205,
  "müßte": 1206,
  "bereitzustellen": 1207,
  "Stan@@": 1208,
  "Person@@": 1209,
  "kräften": 1210,
  "Ganzes": 1211,
  "here": 1212,
  "Tendenz": 1213,
  "spre@@": 1214,
  "Eigentums@@": 1215,
  "verschwinden": 1216,
  "unmittelbaren": 1217,
  "Liqui@@": 1218,
  "kore@@": 1219,
  "Denken": 1220,
  "äle": 1221,
  "Gesundheit@@": 1222,
  "Jugoslawien": 1223,
  "Jahresbericht": 1224,
  "Armuts@@": 1225,
  "belegen": 1226,
  "UNG": 1227,
  "Seever@@": 1228,
  "Projektes": 1229,
  "bew@@": 1230,
  "auszuüben": 1231,
  "Automobilindustrie": 1232,
  "sonni@@": 1233,
  "junger": 1234,
  "automatischen": 1235,
  "stabilität": 1236,
  "Afri@@": 1237,
  "beitreten": 1238,
  "steigenden": 1239,
  "double": 1240,
  "Zugangs@@": 1241,
  "dbar": 1242,
  "bewirkt": 1243,
  "latt": 1244,
  "irgendeiner": 1245,
  "Gemüse": 1246,
  "bereichs": 1247,
  "anfangen": 1248,
  "aktiver": 1249,
  "treibt": 1250,
  "haupt@@": 1251,
  "abzielen": 1252,
  "Sekre@@": 1253,
  "aster": 1254,
  "verstoßen": 1255,
  "Menschenhandel": 1256,
  "Fokus": 1257,
  "Wachstumsp@@": 1258,
  "emissionen": 1259,
  "wesens": 1260,
  "bili@@": 1261,
  "Alkohol": 1262,
  "lägen": 1263,
  "gründlich": 1264,
  "demnach": 1265,
  "vermieten": 1266,
  "ierter": 1267,
  "Religions@@": 1268,
  "ertem": 1269,
  "EX@@": 1270,
  "bücher": 1271,
  "fä@@": 1272,
  "gehörte": 1273,
  "ED": 1274,
  "Assoziierungs@@": 1275,
  "klausel": 1276,
  "Klar@@": 1277,
  "wieso": 1278,
  "bereitschaft": 1279,
  "Wunder": 1280,
  "Alpen@@": 1281,
  "änger@@": 1282,
  "vielfach": 1283,
  "manager": 1284,
  "verkauf@@": 1285,
  "Tibet": 1286,
  "Autor@@": 1287,
  "Stellenwert": 1288,
  "andal@@": 1289,
  "vorrangig": 1290,
  "isp@@": 1291,
  "auto@@": 1292,
  "Abwicklung": 1293,
  "Trag@@": 1294,
  "Landschaften": 1295,
  "schwe@@": 1296,
  "Ly@@": 1297,
  "dänischen": 1298,
  "fehlende": 1299,
  "Teilnehmern": 1300,
  "durchschnittlich": 1301,
  "entschei@@": 1302,
  "handel@@": 1303,
  "einzustellen": 1304,
  "ttern": 1305,
  "James": 1306,
  "ank": 1307,
  "wenigsten": 1308,
  "Stütz@@": 1309,
  "ua": 1310,
  "lot": 1311,
  "walk": 1312,
  "Kommand@@": 1313,
  "stärkeren": 1314,
  "Wärme@@": 1315,
  "Meer@@": 1316,
  "Jahrzehnte": 1317,
  "than@@": 1318,
  "schmerz@@": 1319,
  "friedliche": 1320,
  "Sex@@": 1321,
  "gesorgt": 1322,
  "Lad@@": 1323,
  "Echtzeit": 1324,
  "ardi@@": 1325,
  "Verkauf@@": 1326,
  "Möbel": 1327,
  "93": 1328,
  "Dich@@": 1329,
  "80@@": 1330,
  "schwarzen": 1331,
  "dauerhaft": 1332,
  "lé@@": 1333,
  "cent@@": 1334,
  "regen": 1335,
  "mium": 1336,
  "their": 1337,
  "elegant": 1338,
  "verband": 1339,
  "A4": 1340,
  "Touristen@@": 1341,
  "entstand@@": 1342,
  "Vogel@@": 1343,
  "Front": 1344,
  "chemischen": 1345,
  "Leid": 1346,
  "Funktions@@": 1347,
  "rap@@": 1348,
  "therapie": 1349,
  "Buffet": 1350,
  "Signale": 1351,
  "kommens": 1352,
  "förmi@@": 1353,
  "Aussichten": 1354,
  "erschienen": 1355,
  "vorangegangenen": 1356,
  "Wenn": 1357,
  "dierte": 1358,
  "Route": 1359,
  "Av@@": 1360,
  "müh@@": 1361,
  "Blue": 1362,
  "Öko@@": 1363,
  "Kön@@": 1364,
  "typen": 1365,
  "kü@@": 1366,
  "erlau@@": 1367,
  "Maus@@": 1368,
  "richt@@": 1369,
  "erwe@@": 1370,
  "ET": 1371,
  "77": 1372,
  "stärke": 1373,
  "Vie@@": 1374,
  "Hochschul@@": 1375,
  "erfor@@": 1376,
  "gipfel": 1377,
  "dition": 1378,
  "Vorbild": 1379,
  "berich@@": 1380,
  "Dringlichkeit": 1381,
  "Gerichtshofs": 1382,
  "die@@": 1383,
  "Verpackung": 1384,
  "Heiligen": 1385,
  "ppt": 1386,
  "betreibt": 1387,
  "gesendet": 1388,
  "maler@@": 1389,
  "asiatischen": 1390,
  "Spielraum": 1391,
  "Blut": 1392,
  "Konzerte": 1393,
  "votre": 1394,
  "Substanzen": 1395,
  "ön": 1396,
  "Wachstums": 1397,
  "realisti@@": 1398,
  "temperat@@": 1399,
  "Beendigung": 1400,
  "tener": 1401,
  "Kühl@@": 1402,
  "Wahrscheinlichkeit": 1403,
  "63": 1404,
  "Bag@@": 1405,
  "ING": 1406,
  "table": 1407,
  "Argentinien": 1408,
  "stoppen": 1409,
  "handels@@": 1410,
  "formationen": 1411,
  "KDE": 1412,
  "substan@@": 1413,
  "pum@@": 1414,
  "Leu@@": 1415,
  "inwieweit": 1416,
  "modernis@@": 1417,
  "Cir@@": 1418,
  "lock@@": 1419,
  "untereinander": 1420,
  "enha@@": 1421,
  "vent@@": 1422,
  "maß": 1423,
  "persönlicher": 1424,
  "ding": 1425,
  "82": 1426,
  "Mühe": 1427,
  "M.": 1428,
  "Internetseiten": 1429,
  "Mann@@": 1430,
  "wenngleich": 1431,
  "kompetenz": 1432,
  "Stimmung": 1433,
  "Uhr@@": 1434,
  "Hab@@": 1435,
  "sere": 1436,
  "prin@@": 1437,
  "ausgebaut": 1438,
  "Ankündigung": 1439,
  "öpf@@": 1440,
  "durchsetzen": 1441,
  "ron": 1442,
  "Vizeprä@@": 1443,
  "schlechter": 1444,
  "genügt": 1445,
  "eingereichten": 1446,
  "ester@@": 1447,
  "gangenen": 1448,
  "berger": 1449,
  "verfasst": 1450,
  "tat": 1451,
  "ausgewählte": 1452,
  "Renten@@": 1453,
  "Libanon": 1454,
  "stabile": 1455,
  "Veranstaltungs@@": 1456,
  "ermitteln": 1457,
  "Genf": 1458,
  "rist@@": 1459,
  "verhandeln": 1460,
  "tliches": 1461,
  "bezahl@@": 1462,
  "Innovations@@": 1463,
  "optimieren": 1464,
  "benachrichtigt": 1465,
  "landes": 1466,
  "bo": 1467,
  "atemberau@@": 1468,
  "food": 1469,
  "fischen": 1470,
  "Caf@@": 1471,
  "bas@@": 1472,
  "berühmt": 1473,
  "jahres@@": 1474,
  "Islam": 1475,
  "investi@@": 1476,
  "Scheitern": 1477,
  "two": 1478,
  "Verzögerung": 1479,
  "bekräftigt": 1480,
  "eingang": 1481,
  "ühr@@": 1482,
  "Bot@@": 1483,
  "Ticket": 1484,
  "Schlei@@": 1485,
  "Taiwan": 1486,
  "Koordination": 1487,
  "Gesellschafts@@": 1488,
  "räge": 1489,
  "forderten": 1490,
  "achtung": 1491,
  "LAN": 1492,
  "Frieden@@": 1493,
  "EIN@@": 1494,
  "arch@@": 1495,
  "Dolmet@@": 1496,
  "Legislativ@@": 1497,
  "Prakti@@": 1498,
  "Einkommens@@": 1499,
  "Marktwirtschaft": 1500,
  "xes": 1501,
  "geschmackvoll": 1502,
  "blü@@": 1503,
  "CDs": 1504,
  "verehrten": 1505,
  "Textes": 1506,
  "gesell@@": 1507,
  "Israels": 1508,
  "ichts@@": 1509,
  "Ol@@": 1510,
  "einzurichten": 1511,
  "user": 1512,
  "ann": 1513,
  "ktur": 1514,
  "Verhältnisse": 1515,
  "9,@@": 1516,
  "facilities": 1517,
  "Boot@@": 1518,
  "Architekten": 1519,
  "berechtigten": 1520,
  "IM": 1521,
  "Square": 1522,
  "PC@@": 1523,
  "gge": 1524,
  "Finanzmärkte": 1525,
  "sache": 1526,
  "Entschließungen": 1527,
  "orte": 1528,
  "regelmäßige": 1529,
  "fru@@": 1530,
  "Putin": 1531,
  "konstruktiven": 1532,
  "Fri@@": 1533,
  "Wechsel": 1534,
  "Entschließungsanträge": 1535,
  "Formul@@": 1536,
  "deli@@": 1537,
  "Auslegung": 1538,
  "Feuer": 1539,
  "zahlreicher": 1540,
  "ader": 1541,
  "Betre@@": 1542,
  "masch@@": 1543,
  "Netzes": 1544,
  "leichten": 1545,
  "Slowenien": 1546,
  "Fac@@": 1547,
  "Snow@@": 1548,
  "Gelegenheiten": 1549,
  "schrieb": 1550,
  "anbietet": 1551,
  "Apple": 1552,
  "einig@@": 1553,
  "lossenen": 1554,
  "Ausgang": 1555,
  "archi@@": 1556,
  "wiederhol@@": 1557,
  "Spuren": 1558,
  "88": 1559,
  "häusern": 1560,
  "jährliche": 1561,
  "Neues": 1562,
  "leiste": 1563,
  "Diensten": 1564,
  "fac@@": 1565,
  "Eintritt": 1566,
  "Chr.": 1567,
  "Elementen": 1568,
  "flüge": 1569,
  "mehrmals": 1570,
  "verabschie@@": 1571,
  "Sc@@": 1572,
  "gesun@@": 1573,
  "resul@@": 1574,
  "Fahrrad@@": 1575,
  "weitreich@@": 1576,
  "Arbeiter": 1577,
  "einher@@": 1578,
  "Stuttgart": 1579,
  "bten": 1580,
  "bliche": 1581,
  "cas": 1582,
  "Regulierungs@@": 1583,
  "außergewöhnliche": 1584,
  "kenntnis": 1585,
  "südlich": 1586,
  "äd@@": 1587,
  "daraufhin": 1588,
  "kali@@": 1589,
  "tetes": 1590,
  "thaus": 1591,
  "analysiert": 1592,
  "Verträgen": 1593,
  "Einheiten": 1594,
  "vielfalt": 1595,
  "maßgeschnei@@": 1596,
  "bewertung": 1597,
  "Steu@@": 1598,
  "eingeben": 1599,
  "Einschränkung": 1600,
  "Administration": 1601,
  "Stein": 1602,
  "fair": 1603,
  "authenti@@": 1604,
  "traditionell": 1605,
  "Grafiken": 1606,
  "vorne": 1607,
  "nament@@": 1608,
  "Proto@@": 1609,
  "Rak@@": 1610,
  "dend": 1611,
  "großzügi@@": 1612,
  "Mittelmeerraum": 1613,
  "größt@@": 1614,
  "Registri@@": 1615,
  "Schattenberichterstat@@": 1616,
  "sämtlichen": 1617,
  "ham": 1618,
  "verhe@@": 1619,
  "Guide": 1620,
  "lagern": 1621,
  "Wohlbefinden": 1622,
  "air": 1623,
  "finanziell": 1624,
  "most": 1625,
  "blau@@": 1626,
  "Verzögerungen": 1627,
  "ökonom@@": 1628,
  "konsoli@@": 1629,
  "Freien": 1630,
  "tend": 1631,
  "olog@@": 1632,
  "port": 1633,
  "iere": 1634,
  "wäs@@": 1635,
  "gewählte": 1636,
  "ligt": 1637,
  "Applikationen": 1638,
  "mie": 1639,
  "57": 1640,
  "datum": 1641,
  "Generaldire@@": 1642,
  "japanischen": 1643,
  "ausgestatteten": 1644,
  "gige": 1645,
  "industri@@": 1646,
  "schnitte": 1647,
  "potenti@@": 1648,
  "umfassen@@": 1649,
  "Perspektiven": 1650,
  "Kommunikation@@": 1651,
  "low": 1652,
  "Besich@@": 1653,
  "legitim@@": 1654,
  "Maastricht": 1655,
  "Entwicklungszusammenarbeit": 1656,
  "unterhalb": 1657,
  "tent@@": 1658,
  "Verantwortlichen": 1659,
  "Fitness@@": 1660,
  "entworfen": 1661,
  "bietern": 1662,
  "team": 1663,
  "schön@@": 1664,
  "klass@@": 1665,
  "Bonus": 1666,
  "strafrecht@@": 1667,
  "sieb@@": 1668,
  "aufre@@": 1669,
  "weitergegeben": 1670,
  "Km": 1671,
  "Anmerkung": 1672,
  "verschoben": 1673,
  "I.": 1674,
  "Hen@@": 1675,
  "sichert": 1676,
  "visi@@": 1677,
  "stärkt": 1678,
  "wandern": 1679,
  "lektu@@": 1680,
  "Schwan@@": 1681,
  "bedauern": 1682,
  "Piazza": 1683,
  "Dokum@@": 1684,
  "Fax@@": 1685,
  "stechnologie": 1686,
  "widri@@": 1687,
  "notwendi@@": 1688,
  "Nero": 1689,
  "Wach@@": 1690,
  "intelligent@@": 1691,
  "bedeutend": 1692,
  "su": 1693,
  "amtierender": 1694,
  "RSS": 1695,
  "Aufruf": 1696,
  "höh@@": 1697,
  "sexu@@": 1698,
  "pass": 1699,
  "sender": 1700,
  "vereinfacht": 1701,
  "Sol": 1702,
  "bedeutendsten": 1703,
  "pos@@": 1704,
  "debat@@": 1705,
  "ye@@": 1706,
  "isl@@": 1707,
  "Verein": 1708,
  "Kreis": 1709,
  "cas@@": 1710,
  "Charak@@": 1711,
  "elegan@@": 1712,
  "Vizepräsident": 1713,
  "Verkehrsmittel": 1714,
  "großartige": 1715,
  "Präsidentschafts@@": 1716,
  "Plugin": 1717,
  "chtern": 1718,
  "herauszu@@": 1719,
  "Copyright": 1720,
  "keln": 1721,
  "Flach@@": 1722,
  "büro": 1723,
  "Rit@@": 1724,
  "zuverlässige": 1725,
  "geklärt": 1726,
  "verwand@@": 1727,
  "schaftlichen": 1728,
  "bungs@@": 1729,
  "stufen": 1730,
  "Toi@@": 1731,
  "keit": 1732,
  "verbot": 1733,
  "Ran@@": 1734,
  "zugän@@": 1735,
  "67": 1736,
  "Pon@@": 1737,
  "dsch@@": 1738,
  "vers": 1739,
  "Auswahl@@": 1740,
  "geschätzt": 1741,
  "Initiativ@@": 1742,
  "Thermal@@": 1743,
  "makro@@": 1744,
  "endete": 1745,
  "Wert@@": 1746,
  "friedlichen": 1747,
  "starker": 1748,
  "geräumige": 1749,
  "bestimmung": 1750,
  "größtenteils": 1751,
  "waff@@": 1752,
  "verhältnisse": 1753,
  "übrig": 1754,
  "Brow@@": 1755,
  "Beweise": 1756,
  "artig": 1757,
  "don": 1758,
  "zungen": 1759,
  "Energieversorgung": 1760,
  "faktor": 1761,
  "kontroll@@": 1762,
  "zustand": 1763,
  "Kalender": 1764,
  "rus@@": 1765,
  "mehrerer": 1766,
  "saubere": 1767,
  "kir@@": 1768,
  "A.": 1769,
  "einzelstaatlichen": 1770,
  "Geträn@@": 1771,
  "packen": 1772,
  "nehmern": 1773,
  "niedrig": 1774,
  "gebor@@": 1775,
  "Doppelbett": 1776,
  "Tatsachen": 1777,
  "Benutzern": 1778,
  "Kompromis@@": 1779,
  "Parks": 1780,
  "reno@@": 1781,
  "Executive": 1782,
  "zweimal": 1783,
  "türkische": 1784,
  "aufrechterhalten": 1785,
  "sexuelle": 1786,
  "west@@": 1787,
  "drück@@": 1788,
  "Zut@@": 1789,
  "inde@@": 1790,
  "schungen": 1791,
  "genauen": 1792,
  "Lap@@": 1793,
  "Weltbank": 1794,
  "án": 1795,
  "bestellt": 1796,
  "cre@@": 1797,
  "zusammenzuarbeiten": 1798,
  "ordnen": 1799,
  "worauf": 1800,
  "Fuss": 1801,
  "cc@@": 1802,
  "Komponente": 1803,
  "kirche": 1804,
  "reform": 1805,
  "Partnerschaften": 1806,
  "Luftfahrt@@": 1807,
  "korrekte": 1808,
  "zurückge@@": 1809,
  "räder": 1810,
  "Erwer@@": 1811,
  "Level": 1812,
  "Leistungsfähigkeit": 1813,
  "ritts": 1814,
  "wünschenswert": 1815,
  "arm@@": 1816,
  "cer@@": 1817,
  "eff@@": 1818,
  "netes": 1819,
  "personenbezo@@": 1820,
  "Mä@@": 1821,
  "ignorieren": 1822,
  "örung": 1823,
  "zent": 1824,
  "verliert": 1825,
  "iten@@": 1826,
  "HD": 1827,
  "vorhandene": 1828,
  "rie": 1829,
  "besetzt": 1830,
  "renovierte": 1831,
  "Kohärenz": 1832,
  "Zustellbetten": 1833,
  "firmen": 1834,
  "ito": 1835,
  "Bay": 1836,
  "kurz@@": 1837,
  "Real": 1838,
  "diensten": 1839,
  "tü@@": 1840,
  "Semin@@": 1841,
  "Control": 1842,
  "Nationalpark": 1843,
  "Typ@@": 1844,
  "minutes": 1845,
  "angebo@@": 1846,
  "Bier": 1847,
  "too": 1848,
  "Hans": 1849,
  "korrigieren": 1850,
  "Domain": 1851,
  "Display": 1852,
  "Verteidigungspolitik": 1853,
  "Luf@@": 1854,
  "krieg@@": 1855,
  "Casa": 1856,
  "nachvoll@@": 1857,
  "klares": 1858,
  "Szene": 1859,
  "Rio": 1860,
  "prüfung": 1861,
  "inst@@": 1862,
  "liberalen": 1863,
  "7,@@": 1864,
  "verbindlich": 1865,
  "Kreatur": 1866,
  "bren@@": 1867,
  "föder@@": 1868,
  "Visa": 1869,
  "igkeiten": 1870,
  "ean": 1871,
  "vermu@@": 1872,
  "CE@@": 1873,
  "biologischen": 1874,
  "Infe@@": 1875,
  "nördlichen": 1876,
  "dy@@": 1877,
  "reale": 1878,
  "Sowjetunion": 1879,
  "Kommissionsvorschlag": 1880,
  "sla@@": 1881,
  "partei@@": 1882,
  "Busse": 1883,
  "GO": 1884,
  "anten@@": 1885,
  "niedriger": 1886,
  "erweiterte": 1887,
  "digten": 1888,
  "Sem@@": 1889,
  "bezogene": 1890,
  "mann@@": 1891,
  "Reh@@": 1892,
  "äng@@": 1893,
  "tauschen": 1894,
  "Explorer": 1895,
  "vention@@": 1896,
  "Transa@@": 1897,
  "mittag": 1898,
  "kunst": 1899,
  "lic@@": 1900,
  "tab@@": 1901,
  "tausende": 1902,
  "XML": 1903,
  "ffene": 1904,
  "Reich": 1905,
  "loh@@": 1906,
  "chambres": 1907,
  "Neue": 1908,
  "vielfältige": 1909,
  "Weltwirtschaft": 1910,
  "Auditors": 1911,
  "any": 1912,
  "lisch": 1913,
  "mechanismus": 1914,
  "kehr": 1915,
  "gesundheit@@": 1916,
  "Augen@@": 1917,
  "aktualisieren": 1918,
  "Umweltfragen": 1919,
  "nisses": 1920,
  "geren": 1921,
  "Mü@@": 1922,
  "Mad@@": 1923,
  "Südafrika": 1924,
  "verwöhnen": 1925,
  "EF@@": 1926,
  "Bewusstsein": 1927,
  "Sy@@": 1928,
  "Geschäften": 1929,
  "inbegriffen": 1930,
  "Ministerpräsident": 1931,
  "Anbetracht": 1932,
  "auff@@": 1933,
  "ausgewählten": 1934,
  "besser@@": 1935,
  "Weltkrieg": 1936,
  "gehabt": 1937,
  "Kontra@@": 1938,
  "\\": 1939,
  "Unions@@": 1940,
  "Bergen": 1941,
  "alisten": 1942,
  "arabischen": 1943,
  "Netze": 1944,
  "gerungen": 1945,
  "bedienen": 1946,
  "alleine": 1947,
  "Funktion@@": 1948,
  "Terror@@": 1949,
  "regionaler": 1950,
  "zeichnung": 1951,
  "Profil": 1952,
  "Global": 1953,
  "fuhren": 1954,
  "Jugendliche": 1955,
  "Hafen@@": 1956,
  "aden@@": 1957,
  "hotel@@": 1958,
  "ling@@": 1959,
  "Türen": 1960,
  "stücke": 1961,
  "Volkswirtschaften": 1962,
  "ät": 1963,
  "angebotenen": 1964,
  "fahrten": 1965,
  "wäl@@": 1966,
  "öffentlicher": 1967,
  "zweit@@": 1968,
  "Satelliten@@": 1969,
  "yo@@": 1970,
  "Adobe": 1971,
  "ero": 1972,
  "å@@": 1973,
  "formuliert": 1974,
  "enheit": 1975,
  "flexible": 1976,
  "Inflation": 1977,
  "Garantien": 1978,
  "geräten": 1979,
  "Fakten": 1980,
  "aussehen": 1981,
  "drängt": 1982,
  "Termin": 1983,
  "Erarbeitung": 1984,
  "plötzlich": 1985,
  "Erhalt": 1986,
  "medizinischen": 1987,
  "ill@@": 1988,
  "PA": 1989,
  "neben@@": 1990,
  "größe": 1991,
  "flug": 1992,
  "schein": 1993,
  "lös@@": 1994,
  "stö@@": 1995,
  "hört": 1996,
  "Jung@@": 1997,
  "mobile": 1998,
  "Community": 1999,
  "genes": 2000,
  "Lohn@@": 2001,
  "drin@@": 2002,
  "verzer@@": 2003,
  "lin": 2004,
  "Minibar": 2005,
  "seu@@": 2006,
  "Bürgerbeauftragten": 2007,
  "Gem@@": 2008,
  "ats@@": 2009,
  "schlechte": 2010,
  "Gebühr": 2011,
  "Palace": 2012,
  "Hohe": 2013,
  "Marina": 2014,
  "Wald": 2015,
  "Terroristen": 2016,
  "52": 2017,
  "Vermögens@@": 2018,
  "imm@@": 2019,
  "town": 2020,
  "russische": 2021,
  "Minister@@": 2022,
  "Linien": 2023,
  "Mur@@": 2024,
  "veranst@@": 2025,
  "beschreibt": 2026,
  "hofs": 2027,
  "isse": 2028,
  "Rec@@": 2029,
  "Kommissionspräsident": 2030,
  "köst@@": 2031,
  "klen": 2032,
  "ans@@": 2033,
  "Heimat@@": 2034,
  "stein@@": 2035,
  "chts": 2036,
  "erbaut": 2037,
  "Revision": 2038,
  "aufnahme": 2039,
  "Wäh@@": 2040,
  "glaubt": 2041,
  "kostengünsti@@": 2042,
  "chtigen": 2043,
  "menge": 2044,
  "miß@@": 2045,
  "Inten@@": 2046,
  "greif@@": 2047,
  "ständiger": 2048,
  "Alters@@": 2049,
  "vermieden": 2050,
  "zwe@@": 2051,
  "tigem": 2052,
  "tisches": 2053,
  "Original": 2054,
  "herrschen": 2055,
  "grenz@@": 2056,
  "schreit@@": 2057,
  "Pic@@": 2058,
  "rad@@": 2059,
  "tradition@@": 2060,
  "bezogen": 2061,
  "Anti": 2062,
  "etc": 2063,
  "trieb": 2064,
  "Konvention": 2065,
  "Angebo@@": 2066,
  "ello": 2067,
  "like": 2068,
  "kohär@@": 2069,
  "begründet": 2070,
  "Meinungen": 2071,
  "eindeutige": 2072,
  "ari": 2073,
  "Zielsetzungen": 2074,
  "Verteidigungs@@": 2075,
  "aush@@": 2076,
  "ère": 2077,
  "popul@@": 2078,
  "ó": 2079,
  "externe": 2080,
  "berührt": 2081,
  "liegende": 2082,
  "Koh@@": 2083,
  "Hä@@": 2084,
  "übermitteln": 2085,
  "Betracht": 2086,
  "Ferien": 2087,
  "streben": 2088,
  "Obama": 2089,
  "geringer": 2090,
  "ration": 2091,
  "Wälder": 2092,
  "bestens": 2093,
  "Power": 2094,
  "versehen": 2095,
  "geld": 2096,
  "betten": 2097,
  "begegnen": 2098,
  "aly@@": 2099,
  "Portal": 2100,
  "Südo@@": 2101,
  "nei@@": 2102,
  "inneren": 2103,
  "kredi@@": 2104,
  "anerkennen": 2105,
  "planung": 2106,
  "trag": 2107,
  "tausend": 2108,
  "26.": 2109,
  "strebt": 2110,
  "wahre": 2111,
  "obligator@@": 2112,
  "vielfäl@@": 2113,
  "beliebigen": 2114,
  "Köln": 2115,
  "Top@@": 2116,
  "kontinuierlich": 2117,
  "Ken@@": 2118,
  "Netzwerk@@": 2119,
  "schreibt": 2120,
  "gebnis": 2121,
  "bene": 2122,
  "assungen": 2123,
  "lei": 2124,
  "Angabe": 2125,
  "lag@@": 2126,
  "politi@@": 2127,
  "Schaden@@": 2128,
  "spa@@": 2129,
  "ario": 2130,
  "abgeben": 2131,
  "Kau@@": 2132,
  "technologie": 2133,
  "Menschheit": 2134,
  "Verfahrens@@": 2135,
  "erweisen": 2136,
  "aben": 2137,
  "multi@@": 2138,
  "ür": 2139,
  "2.0": 2140,
  "eist@@": 2141,
  "Energiever@@": 2142,
  "gingen": 2143,
  "Mol@@": 2144,
  "wirklichen": 2145,
  "Spektrum": 2146,
  "musikali@@": 2147,
  "Europa@@": 2148,
  "Schulden@@": 2149,
  "Tele@@": 2150,
  "Ten@@": 2151,
  "älter": 2152,
  "eigenem": 2153,
  "lebenden": 2154,
  "Distri@@": 2155,
  "erfasst": 2156,
  "kulin@@": 2157,
  "länger@@": 2158,
  "Mengen": 2159,
  "visu@@": 2160,
  "Alp@@": 2161,
  "Osteuropa": 2162,
  "schwieriger": 2163,
  "Verordnungen": 2164,
  "Fremden@@": 2165,
  "ökonomische": 2166,
  "mol@@": 2167,
  "Zusammensetzung": 2168,
  "Chancengleichheit": 2169,
  "hen@@": 2170,
  "stür@@": 2171,
  "quelle": 2172,
  "Beschwerden": 2173,
  "verteilung": 2174,
  "ätz@@": 2175,
  "David": 2176,
  "nutzbar": 2177,
  "agi@@": 2178,
  "Französisch": 2179,
  "industriellen": 2180,
  "area": 2181,
  "Gottes": 2182,
  "kampf": 2183,
  "extra": 2184,
  "blieb": 2185,
  "vorbehalten": 2186,
  "Pun@@": 2187,
  "Einsch@@": 2188,
  "Bedienung": 2189,
  "sichtlich": 2190,
  "ama": 2191,
  "dul@@": 2192,
  "religiösen": 2193,
  "bert": 2194,
  "ral": 2195,
  "Lebensmittelsicherheit": 2196,
  "atives": 2197,
  "Umsatz": 2198,
  "erlassen": 2199,
  "verwalten": 2200,
  "organisierte": 2201,
  "IR@@": 2202,
  "Last": 2203,
  "stur@@": 2204,
  "e.@@": 2205,
  "lege": 2206,
  "real": 2207,
  "Schwellen@@": 2208,
  "my@@": 2209,
  "Liberalen": 2210,
  "Posi@@": 2211,
  "normen": 2212,
  "Batter@@": 2213,
  "Datenschutz": 2214,
  "Metall@@": 2215,
  "begünsti@@": 2216,
  "lans": 2217,
  "Fang@@": 2218,
  "Leiter": 2219,
  "etabli@@": 2220,
  "gegeb@@": 2221,
  "dru@@": 2222,
  "Konferenzen": 2223,
  "lassungen": 2224,
  "Einnahmen": 2225,
  "zehn@@": 2226,
  "ausgedeh@@": 2227,
  "ysteme": 2228,
  "konzept": 2229,
  "geteilt": 2230,
  "sagten": 2231,
  "Zeu@@": 2232,
  "marktes": 2233,
  "Schnell@@": 2234,
  "gravier@@": 2235,
  "Zerstörung": 2236,
  "punkten": 2237,
  "Maxim@@": 2238,
  "big": 2239,
  "Halle": 2240,
  "Zunahme": 2241,
  "situ@@": 2242,
  "angelegt": 2243,
  "PL@@": 2244,
  "Unterhaltung": 2245,
  "Anwen@@": 2246,
  "Abstimmungen": 2247,
  "dramati@@": 2248,
  "Buchungs@@": 2249,
  "nachhaltig": 2250,
  "Belastung": 2251,
  "Mallorca": 2252,
  "reiz@@": 2253,
  "ela": 2254,
  "ty@@": 2255,
  "Bühne": 2256,
  "zweif@@": 2257,
  "Geräten": 2258,
  "vorliegt": 2259,
  "ausstattung": 2260,
  "Herkunft": 2261,
  "breit": 2262,
  "retten": 2263,
  "Herr@@": 2264,
  "Sha@@": 2265,
  "esische": 2266,
  "Span@@": 2267,
  "halb": 2268,
  "freundliches": 2269,
  "taus@@": 2270,
  "Herkunfts@@": 2271,
  "Inform@@": 2272,
  "Tim@@": 2273,
  "unde": 2274,
  "Audio@@": 2275,
  "Fax": 2276,
  "tatsächlichen": 2277,
  "oberen": 2278,
  "zel@@": 2279,
  "Pl@@": 2280,
  "effizienten": 2281,
  "28.": 2282,
  "polnischen": 2283,
  "doppelt": 2284,
  "gebe": 2285,
  "zweck@@": 2286,
  "ca@@": 2287,
  "erfahr@@": 2288,
  "abgegeben": 2289,
  "bearbeitet": 2290,
  "orien": 2291,
  "Rechnungshof": 2292,
  "drängen": 2293,
  "Bosnien": 2294,
  "European": 2295,
  "Rin@@": 2296,
  "Abbau": 2297,
  "aturen": 2298,
  "51": 2299,
  "grü@@": 2300,
  "ol": 2301,
  "name": 2302,
  "maßen": 2303,
  "Fr@@": 2304,
  "86": 2305,
  "ältere": 2306,
  "bezeichnen": 2307,
  "bestände": 2308,
  "antes": 2309,
  "trennen": 2310,
  "unterscheidet": 2311,
  "grafische": 2312,
  "lichste": 2313,
  "Tou@@": 2314,
  "zwanzig": 2315,
  "mechanismen": 2316,
  "Aufzug": 2317,
  "iser": 2318,
  "Formulierung": 2319,
  "Hof": 2320,
  "zivi@@": 2321,
  "verpflich@@": 2322,
  "cal@@": 2323,
  "prüf@@": 2324,
  "Nicht": 2325,
  "verabschieden": 2326,
  "sou@@": 2327,
  "usi@@": 2328,
  "künfte": 2329,
  "investiert": 2330,
  "Invest@@": 2331,
  "englischen": 2332,
  "kompak@@": 2333,
  "dien@@": 2334,
  "cou@@": 2335,
  "herrliche": 2336,
  "stete": 2337,
  "profession@@": 2338,
  "Gebäuden": 2339,
  "Billi@@": 2340,
  "Bou@@": 2341,
  "Energiequellen": 2342,
  "Ergänzung": 2343,
  "namen": 2344,
  "kas": 2345,
  "Strah@@": 2346,
  "Pho@@": 2347,
  "könne": 2348,
  "feiern": 2349,
  "streng": 2350,
  "ous": 2351,
  "Wettbewerbs": 2352,
  "registri@@": 2353,
  "Alpen": 2354,
  "strasse": 2355,
  "hüb@@": 2356,
  "Schuld": 2357,
  "Meister@@": 2358,
  "jo": 2359,
  "ando": 2360,
  "ce@@": 2361,
  "kleineren": 2362,
  "irische": 2363,
  "Summe": 2364,
  "Aufnahmen": 2365,
  "Anträge": 2366,
  "On@@": 2367,
  "gast@@": 2368,
  "Plus": 2369,
  "dahin": 2370,
  "Maß@@": 2371,
  "gerechtfertigt": 2372,
  "mern": 2373,
  "ruf": 2374,
  "Schei@@": 2375,
  "ink": 2376,
  "Versuche": 2377,
  "Ev@@": 2378,
  "Würde": 2379,
  "Sig@@": 2380,
  "stützt": 2381,
  "Verfahrens": 2382,
  "ams": 2383,
  "sendung": 2384,
  "Lager@@": 2385,
  "ktor@@": 2386,
  "OT@@": 2387,
  "ausführlich": 2388,
  "Änderungs@@": 2389,
  "Meinungs@@": 2390,
  "gebühren": 2391,
  "arbeiter": 2392,
  "regionen": 2393,
  "einst": 2394,
  "Port@@": 2395,
  "Via": 2396,
  "Szen@@": 2397,
  "Entwicklungshilfe": 2398,
  "statt@@": 2399,
  "Kapazität": 2400,
  "angekündigt": 2401,
  "Seiten@@": 2402,
  "erung@@": 2403,
  "hung": 2404,
  "brech@@": 2405,
  "Pin@@": 2406,
  "tan": 2407,
  "stattgefunden": 2408,
  "Ag@@": 2409,
  "Haushalts": 2410,
  "part": 2411,
  "fün@@": 2412,
  "See@@": 2413,
  "Transpor@@": 2414,
  "Aussagen": 2415,
  "endgültige": 2416,
  "geehrte": 2417,
  "Inv@@": 2418,
  "marquis": 2419,
  "mess@@": 2420,
  "verurteilen": 2421,
  "Krisen@@": 2422,
  "23.": 2423,
  "graphie": 2424,
  "auswirken": 2425,
  "Energies@@": 2426,
  "Fal@@": 2427,
  "anzupassen": 2428,
  "belieb@@": 2429,
  "ähr@@": 2430,
  "wachsende": 2431,
  "vielsei@@": 2432,
  "Gran@@": 2433,
  "USD": 2434,
  "terror@@": 2435,
  "Lateinamerika": 2436,
  "detaillierte": 2437,
  "Charme": 2438,
  "Kooperations@@": 2439,
  "Filter": 2440,
  "Camp@@": 2441,
  "Royal": 2442,
  "Baum@@": 2443,
  "Protokolls": 2444,
  "herum": 2445,
  "vereint": 2446,
  "gebrachten": 2447,
  "bisschen": 2448,
  "send": 2449,
  "atz@@": 2450,
  "schöner": 2451,
  "gieren": 2452,
  "NI": 2453,
  "Souveränität": 2454,
  "Clubs": 2455,
  "agt": 2456,
  "Adressen": 2457,
  "wertvolle": 2458,
  ".org": 2459,
  "ruhiger": 2460,
  "97": 2461,
  "ú@@": 2462,
  "geringen": 2463,
  "IB@@": 2464,
  "besie@@": 2465,
  "inger": 2466,
  "wirft": 2467,
  "Pet@@": 2468,
  "komfortabel": 2469,
  "präz@@": 2470,
  "dring@@": 2471,
  "Amts@@": 2472,
  "gros@@": 2473,
  "Präsentation": 2474,
  "förderung": 2475,
  "gelernt": 2476,
  "räu@@": 2477,
  "ursprüngliche": 2478,
  "parks": 2479,
  "engen": 2480,
  "ologischer": 2481,
  "wol@@": 2482,
  "kan": 2483,
  "unterwegs": 2484,
  "wander@@": 2485,
  "Schicksal": 2486,
  "Beru@@": 2487,
  "poli@@": 2488,
  "mes@@": 2489,
  "Autor": 2490,
  "Nov@@": 2491,
  "eits@@": 2492,
  "autor@@": 2493,
  "IP@@": 2494,
  "EW@@": 2495,
  "Sound": 2496,
  "stärksten": 2497,
  "verzichten": 2498,
  "sicherer": 2499,
  "Häfen": 2500,
  "intensi@@": 2501,
  "Symp@@": 2502,
  "rup@@": 2503,
  "would": 2504,
  "licht@@": 2505,
  "MB": 2506,
  "Getränke": 2507,
  "habt": 2508,
  "jüngste": 2509,
  "ade@@": 2510,
  "Strom": 2511,
  "nötigen": 2512,
  "heim": 2513,
  "personen": 2514,
  "text": 2515,
  "spanische": 2516,
  "Ide@@": 2517,
  "bewußt": 2518,
  "nieren": 2519,
  "Existenz": 2520,
  "Fortsetzung": 2521,
  "Wünschen": 2522,
  "Proz@@": 2523,
  "langem": 2524,
  "dieselbe": 2525,
  "äußer@@": 2526,
  "übergreif@@": 2527,
  "betriebe": 2528,
  "lehr@@": 2529,
  "Str@@": 2530,
  "plätzen": 2531,
  "Kommun@@": 2532,
  "höchster": 2533,
  "Eröffnung": 2534,
  "Wett@@": 2535,
  "schenken": 2536,
  "Check": 2537,
  "s.": 2538,
  "UT@@": 2539,
  "ary": 2540,
  "Regen@@": 2541,
  "vertrauen": 2542,
  "anpassen": 2543,
  "afrikanischen": 2544,
  "gegenüber@@": 2545,
  "Lager": 2546,
  "getreten": 2547,
  "mali@@": 2548,
  "anforderungen": 2549,
  "baut": 2550,
  "theore@@": 2551,
  "Schreiben": 2552,
  "Tief@@": 2553,
  "öffnet": 2554,
  "li": 2555,
  "Seele": 2556,
  "Fehl@@": 2557,
  "stil": 2558,
  "einstellen": 2559,
  "Spezialisten": 2560,
  "Fisch": 2561,
  "Australien": 2562,
  "Heimat": 2563,
  "landschaft": 2564,
  "Brücke": 2565,
  "graph@@": 2566,
  "vertritt": 2567,
  "Schau@@": 2568,
  "Hände": 2569,
  "nes": 2570,
  "pla@@": 2571,
  "Georgien": 2572,
  "ess": 2573,
  "Pension": 2574,
  "paket": 2575,
  "klären": 2576,
  "kunde": 2577,
  "Gemeinden": 2578,
  "orie": 2579,
  "Kabel": 2580,
  "ähnlichen": 2581,
  "parlamentarischen": 2582,
  "wit@@": 2583,
  "Alternativen": 2584,
  "beweisen": 2585,
  "gesetz": 2586,
  "1991": 2587,
  "anzuwenden": 2588,
  "Ausweitung": 2589,
  "fahrzeuge": 2590,
  "schwerwie@@": 2591,
  "eröffnen": 2592,
  "Taten": 2593,
  "syn@@": 2594,
  "Schnittstelle": 2595,
  "deutliche": 2596,
  "quote": 2597,
  "Bauern@@": 2598,
  "liber@@": 2599,
  "Behörde": 2600,
  "over": 2601,
  "Publikum": 2602,
  "komplexen": 2603,
  "fi": 2604,
  "DS@@": 2605,
  "anen": 2606,
  "erarbeitet": 2607,
  "beteiligten": 2608,
  "Mitarbeit@@": 2609,
  "Rich@@": 2610,
  "Mini@@": 2611,
  "felder": 2612,
  "Anzeige": 2613,
  "dieselben": 2614,
  "kg": 2615,
  "spektakul@@": 2616,
  "däm@@": 2617,
  "mäßigen": 2618,
  "tlicher": 2619,
  "hafter": 2620,
  "bevölkerung": 2621,
  "Port": 2622,
  "bedroht": 2623,
  "ausgestellt": 2624,
  "Ausrichtung": 2625,
  "Ci@@": 2626,
  "Bildschirm": 2627,
  "gerechnet": 2628,
  "staat@@": 2629,
  "Inhalten": 2630,
  "Service@@": 2631,
  "empfiehlt": 2632,
  "reform@@": 2633,
  "feste": 2634,
  "Stufe": 2635,
  "EG@@": 2636,
  "Themen@@": 2637,
  "knü@@": 2638,
  "sy@@": 2639,
  "prinzip": 2640,
  "jährlichen": 2641,
  "niedrigen": 2642,
  "änderungen": 2643,
  "typische": 2644,
  "ungeachtet": 2645,
  "diesmal": 2646,
  "Gut@@": 2647,
  "Steigerung": 2648,
  "registrieren": 2649,
  "einzig": 2650,
  "Schie@@": 2651,
  "Dublin": 2652,
  "Weiß@@": 2653,
  "fairen": 2654,
  "Verk@@": 2655,
  "ces": 2656,
  "Reinigung": 2657,
  "teuer": 2658,
  "beinahe": 2659,
  "Safe": 2660,
  "wärts": 2661,
  "stag": 2662,
  "verbreit@@": 2663,
  "Reit@@": 2664,
  "drückt": 2665,
  "glob@@": 2666,
  "Centre": 2667,
  "mensch@@": 2668,
  "gehörige": 2669,
  "Versprechen": 2670,
  "Konfiguration": 2671,
  "Bauern": 2672,
  "finanzierung": 2673,
  "Steuer": 2674,
  "aux": 2675,
  "Kreu@@": 2676,
  "bewegung": 2677,
  "agen": 2678,
  "ail@@": 2679,
  "basieren": 2680,
  "geringe": 2681,
  "Install@@": 2682,
  "Vorsitzenden": 2683,
  "Hostel": 2684,
  "S.@@": 2685,
  "sektors": 2686,
  "arbeiteten": 2687,
  "trans@@": 2688,
  "personal": 2689,
  "Digital@@": 2690,
  "konzep@@": 2691,
  "zwölf": 2692,
  "spätestens": 2693,
  "schwan@@": 2694,
  "keit@@": 2695,
  "eingeladen": 2696,
  "gratis": 2697,
  "Image": 2698,
  "derselben": 2699,
  "Block@@": 2700,
  "übt": 2701,
  "Leg@@": 2702,
  "gewinnt": 2703,
  "Archi@@": 2704,
  "aufgestellt": 2705,
  "befürwortet": 2706,
  "nah": 2707,
  "eignen": 2708,
  "erforderliche": 2709,
  "überwacht": 2710,
  "off": 2711,
  ".00": 2712,
  "orientierte": 2713,
  "rechn@@": 2714,
  "een": 2715,
  "chemische": 2716,
  "Datei@@": 2717,
  "standes": 2718,
  "erwähnten": 2719,
  "meistens": 2720,
  "bus@@": 2721,
  "Jahr@@": 2722,
  "Bitte": 2723,
  "Minderheit": 2724,
  "erheblichen": 2725,
  "verschaffen": 2726,
  "IC": 2727,
  "Tabak@@": 2728,
  "herrsch@@": 2729,
  "inakzeptabel": 2730,
  "gü@@": 2731,
  "Produktivität": 2732,
  "Jun@@": 2733,
  "biegen": 2734,
  "Gärten": 2735,
  "Wind": 2736,
  "Gewinn": 2737,
  "gering": 2738,
  "interes@@": 2739,
  "passieren": 2740,
  "Beschränkungen": 2741,
  "Garten@@": 2742,
  "king": 2743,
  "light": 2744,
  "Nah@@": 2745,
  "29.": 2746,
  "Händen": 2747,
  "Vertrieb": 2748,
  "pflan@@": 2749,
  "wünscht": 2750,
  "folge": 2751,
  "â@@": 2752,
  "Automobil@@": 2753,
  "Je@@": 2754,
  "Zahn@@": 2755,
  "iens": 2756,
  "Power@@": 2757,
  "verstän@@": 2758,
  "by@@": 2759,
  "eigentliche": 2760,
  "onn@@": 2761,
  "LO@@": 2762,
  "technischer": 2763,
  "Bom@@": 2764,
  "Durchsetzung": 2765,
  "passende": 2766,
  "entsp@@": 2767,
  "het": 2768,
  "erarbeiten": 2769,
  "häl@@": 2770,
  "Training": 2771,
  "behandlung": 2772,
  "sech@@": 2773,
  "bers": 2774,
  "ons@@": 2775,
  "verwiesen": 2776,
  "dün@@": 2777,
  "Russlands": 2778,
  "Nachdruck": 2779,
  "sität": 2780,
  "eli@@": 2781,
  "verarbeitung": 2782,
  "Dynamik": 2783,
  "Bürokratie": 2784,
  "behauptet": 2785,
  "Performance": 2786,
  "absolute": 2787,
  "meldungen": 2788,
  "mel": 2789,
  "Drogen": 2790,
  "methode": 2791,
  "aufgeführt": 2792,
  "leistet": 2793,
  "Fabri@@": 2794,
  "öse": 2795,
  "herunter@@": 2796,
  "Verwal@@": 2797,
  "Kohlen@@": 2798,
  "fers": 2799,
  "racht": 2800,
  "derart": 2801,
  "anwen@@": 2802,
  "about": 2803,
  "Jean": 2804,
  "Wild@@": 2805,
  "sogenannte": 2806,
  "österreichischen": 2807,
  "leitungen": 2808,
  "Samm@@": 2809,
  "Stock": 2810,
  "dauern": 2811,
  "lassung": 2812,
  "samm@@": 2813,
  "Binnen@@": 2814,
  "sil@@": 2815,
  "Ausnahmen": 2816,
  "relevanten": 2817,
  "work": 2818,
  "tauchen": 2819,
  "Mobil@@": 2820,
  "achtet": 2821,
  "leihen": 2822,
  "individu@@": 2823,
  "gri@@": 2824,
  "Gas": 2825,
  "geeigneten": 2826,
  "wes@@": 2827,
  "gesetzten": 2828,
  "Übernahme": 2829,
  "Börse": 2830,
  "Radi@@": 2831,
  "zugelassen": 2832,
  "Ehr@@": 2833,
  "modi@@": 2834,
  "Privatsphäre": 2835,
  "Feu@@": 2836,
  "erstreckt": 2837,
  "dem@@": 2838,
  "zugestimmt": 2839,
  "steuer": 2840,
  "blick": 2841,
  "stands@@": 2842,
  "äuß@@": 2843,
  "fenster": 2844,
  "top": 2845,
  "4,@@": 2846,
  "Export@@": 2847,
  "hielt": 2848,
  "ys@@": 2849,
  "zustande": 2850,
  "Zweiten": 2851,
  "gemeinsamer": 2852,
  "Rechen@@": 2853,
  "erinnen": 2854,
  "här@@": 2855,
  "rich": 2856,
  "redu@@": 2857,
  "integrieren": 2858,
  "ruppe": 2859,
  "Log@@": 2860,
  "Gebir@@": 2861,
  "zeichnete": 2862,
  "Cu@@": 2863,
  "eingerichtete": 2864,
  "Spor@@": 2865,
  "Jag@@": 2866,
  "film": 2867,
  "koordini@@": 2868,
  "bun@@": 2869,
  "gerung": 2870,
  "fertigt": 2871,
  "ärmsten": 2872,
  "Fertig@@": 2873,
  "besticht": 2874,
  "ßten": 2875,
  "herz@@": 2876,
  "eingerichteten": 2877,
  "Rezession": 2878,
  "Nichtraucherzimmer": 2879,
  "beschließen": 2880,
  "Volkspartei": 2881,
  "lehnen": 2882,
  "ever@@": 2883,
  "lokaler": 2884,
  "abilität": 2885,
  "Peti@@": 2886,
  "elektron@@": 2887,
  "austau@@": 2888,
  "wör@@": 2889,
  "Transaktionen": 2890,
  "Illu@@": 2891,
  "diger": 2892,
  "bewirken": 2893,
  "Konzentration": 2894,
  "Boo@@": 2895,
  "tägliche": 2896,
  "J": 2897,
  "C.": 2898,
  "bot": 2899,
  "Emp@@": 2900,
  "schützt": 2901,
  "vit@@": 2902,
  "organisierten": 2903,
  "Aktivität": 2904,
  "schein@@": 2905,
  "staatlicher": 2906,
  "akzeptabel": 2907,
  "zentrali@@": 2908,
  "Übersetzungs@@": 2909,
  "vorsieht": 2910,
  "ktivität": 2911,
  "TR@@": 2912,
  "ès": 2913,
  "Ufer": 2914,
  "Verantwort@@": 2915,
  "unerlässlich": 2916,
  "elemente": 2917,
  "geordnet": 2918,
  "daneben": 2919,
  "Im": 2920,
  "boo@@": 2921,
  "frucht@@": 2922,
  "hl": 2923,
  "Karriere": 2924,
  "ones": 2925,
  "kritische": 2926,
  "kritisch": 2927,
  "begrenzte": 2928,
  "Geschenk": 2929,
  "Fluggesellschaften": 2930,
  "Missbrauch": 2931,
  "erläutern": 2932,
  "ungsweise": 2933,
  "dio@@": 2934,
  "Rassismus": 2935,
  "alistische": 2936,
  "israelischen": 2937,
  "sitz@@": 2938,
  "day": 2939,
  "Rein@@": 2940,
  "Schlag@@": 2941,
  "Est@@": 2942,
  "Städ@@": 2943,
  "Gipfeltreffen": 2944,
  "geli@@": 2945,
  "luxuriöse": 2946,
  "Raums": 2947,
  "nachdenken": 2948,
  "gelt": 2949,
  "orienti@@": 2950,
  "Ner@@": 2951,
  "beurteilen": 2952,
  "ungeh@@": 2953,
  "technologischen": 2954,
  "blatt": 2955,
  "digte": 2956,
  "charman@@": 2957,
  "Fü@@": 2958,
  "steuerung": 2959,
  "small": 2960,
  "gewinn@@": 2961,
  "dner": 2962,
  "Lobby": 2963,
  "wiesen": 2964,
  "bach": 2965,
  "verwirklichen": 2966,
  "bezauber@@": 2967,
  "Öff@@": 2968,
  "deinen": 2969,
  "erfolgte": 2970,
  "übermittelt": 2971,
  "bekanntlich": 2972,
  "gewünscht": 2973,
  "onien": 2974,
  "van@@": 2975,
  "qualifizierten": 2976,
  "stoß": 2977,
  "Seen": 2978,
  "neueste": 2979,
  "bedien@@": 2980,
  "unterbreiten": 2981,
  "demokratischer": 2982,
  "Erweiterungs@@": 2983,
  "SCH@@": 2984,
  "kreu@@": 2985,
  "Kämpf@@": 2986,
  "sign@@": 2987,
  "strenge": 2988,
  "Strasse": 2989,
  "Pflege": 2990,
  "orientiert": 2991,
  "lohnt": 2992,
  "beruhi@@": 2993,
  "angewiesen": 2994,
  "Medizin": 2995,
  "hor@@": 2996,
  "AV@@": 2997,
  "info": 2998,
  "aufgaben": 2999,
  "jü@@": 3000,
  "fertigen": 3001,
  "voran": 3002,
  "MA": 3003,
  "monat@@": 3004,
  "od": 3005,
  "eintreten": 3006,
  "gleichwohl": 3007,
  "aming": 3008,
  "Ram@@": 3009,
  "blä@@": 3010,
  "Hektar": 3011,
  "ly@@": 3012,
  "äum@@": 3013,
  "technologische": 3014,
  "Klin@@": 3015,
  "kommun@@": 3016,
  "reichhal@@": 3017,
  "tags": 3018,
  "erlei": 3019,
  "keinesfalls": 3020,
  "mien": 3021,
  "vereinbarten": 3022,
  "ple@@": 3023,
  "zielt": 3024,
  "Unterlagen": 3025,
  "klassische": 3026,
  "stützen": 3027,
  "zeuge": 3028,
  "Data": 3029,
  "Zwe@@": 3030,
  "erweiterten": 3031,
  "urop@@": 3032,
  "Diam@@": 3033,
  "nötige": 3034,
  "Flugzeuge": 3035,
  "ine@@": 3036,
  "Event": 3037,
  "Life": 3038,
  "konvention@@": 3039,
  "erwähnte": 3040,
  "Cha@@": 3041,
  "erfolgreich@@": 3042,
  "slo@@": 3043,
  "ehrgei@@": 3044,
  "è": 3045,
  "faire": 3046,
  "Mobili@@": 3047,
  "Frühjahr": 3048,
  "Merkmale": 3049,
  "Got@@": 3050,
  "tiven": 3051,
  "EP": 3052,
  "verkauf": 3053,
  "gestiegen": 3054,
  "Beamten": 3055,
  "Gewinner": 3056,
  "Motto": 3057,
  "ero@@": 3058,
  "tiefe": 3059,
  "Installations@@": 3060,
  "Vel@@": 3061,
  "ity": 3062,
  "Betriebssystem": 3063,
  "spielte": 3064,
  "Canon": 3065,
  "einzigartig": 3066,
  "Straft@@": 3067,
  "Arbeitsgruppe": 3068,
  "grenzüberschreitende": 3069,
  "Karten@@": 3070,
  "berufen": 3071,
  "skosten": 3072,
  "ganz@@": 3073,
  "Wissens@@": 3074,
  "Kil@@": 3075,
  "bien": 3076,
  "vere": 3077,
  "Pflichten": 3078,
  "angeben": 3079,
  "XP": 3080,
  "geschäft@@": 3081,
  "eingeschränkt": 3082,
  "Einschätzung": 3083,
  "enswerte": 3084,
  "bewiesen": 3085,
  "ska": 3086,
  "speich@@": 3087,
  "pf": 3088,
  "Sum@@": 3089,
  "Still@@": 3090,
  "Höh@@": 3091,
  "iler": 3092,
  "verwen@@": 3093,
  "affung": 3094,
  "ust": 3095,
  "Playa": 3096,
  "Stell@@": 3097,
  "eich@@": 3098,
  "freies": 3099,
  "ösen": 3100,
  "esischen": 3101,
  "Dach": 3102,
  "zwischen@@": 3103,
  "erläutert": 3104,
  "ni": 3105,
  "ild": 3106,
  "Fron@@": 3107,
  "erörtern": 3108,
  "Wartung": 3109,
  "angefangen": 3110,
  "Lon@@": 3111,
  "USS": 3112,
  "zeigten": 3113,
  "Gäste@@": 3114,
  "Dir": 3115,
  "sters": 3116,
  "istischer": 3117,
  "Schatten": 3118,
  "other": 3119,
  "messe": 3120,
  "Beratungs@@": 3121,
  "tätigen": 3122,
  "falschen": 3123,
  "demokrati@@": 3124,
  "analy@@": 3125,
  "Auff@@": 3126,
  "SAP": 3127,
  "Treiber": 3128,
  "Get@@": 3129,
  "erworben": 3130,
  "bauten": 3131,
  "überein@@": 3132,
  "französ@@": 3133,
  "erre@@": 3134,
  "Hot@@": 3135,
  "Koordin@@": 3136,
  "messer": 3137,
  "Getrei@@": 3138,
  "ältesten": 3139,
  "Vertretung": 3140,
  "angeblich": 3141,
  "außen@@": 3142,
  "ffer": 3143,
  "Schü@@": 3144,
  "begeistert": 3145,
  "Kri@@": 3146,
  "ungen@@": 3147,
  "max": 3148,
  "gres@@": 3149,
  "intensive": 3150,
  "Kräften": 3151,
  "Amerikas": 3152,
  "Scre@@": 3153,
  "realen": 3154,
  "verti@@": 3155,
  "Fragestunde": 3156,
  "tigte": 3157,
  "SE": 3158,
  "fter": 3159,
  "zielen": 3160,
  "aket": 3161,
  "zell@@": 3162,
  "ville": 3163,
  "ô@@": 3164,
  "beleu@@": 3165,
  "schlimmer": 3166,
  "56": 3167,
  "Trink@@": 3168,
  "Digital": 3169,
  "gab@@": 3170,
  "griff": 3171,
  "vorgesch@@": 3172,
  "strengen": 3173,
  "ligkeit": 3174,
  "CS": 3175,
  "Künstler@@": 3176,
  "geeig@@": 3177,
  "programmi@@": 3178,
  "Hard@@": 3179,
  "Angriffe": 3180,
  "Richter": 3181,
  "Lü@@": 3182,
  "bedro@@": 3183,
  "Zü@@": 3184,
  "enes": 3185,
  "Zufriedenheit": 3186,
  "bür@@": 3187,
  "gebrochen": 3188,
  "läne": 3189,
  "reine": 3190,
  "Erleb@@": 3191,
  "Schwarz@@": 3192,
  "Prävention": 3193,
  "ora": 3194,
  "Komit@@": 3195,
  "·": 3196,
  "gleichs@@": 3197,
  "Kapazitäten": 3198,
  "tform": 3199,
  "A3@@": 3200,
  "üblich": 3201,
  "Wort@@": 3202,
  "vorn": 3203,
  "Experim@@": 3204,
  "Tennis@@": 3205,
  "protokol@@": 3206,
  "Realisierung": 3207,
  "Äußerungen": 3208,
  "idealen": 3209,
  "afri@@": 3210,
  "PRO@@": 3211,
  "Temperatur": 3212,
  "ci": 3213,
  "angen": 3214,
  "klär@@": 3215,
  "Europol": 3216,
  "27@@": 3217,
  "mündlichen": 3218,
  "kontrollen": 3219,
  "Erbe": 3220,
  "schwi@@": 3221,
  "lam@@": 3222,
  "Corporate": 3223,
  "versi@@": 3224,
  "änder@@": 3225,
  "ence": 3226,
  "Ausschüsse": 3227,
  "Dritter": 3228,
  "runde": 3229,
  "28@@": 3230,
  "sist@@": 3231,
  "kompletten": 3232,
  "wäch@@": 3233,
  "integri@@": 3234,
  "Rand": 3235,
  "siv": 3236,
  "behin@@": 3237,
  "fach": 3238,
  "Genuss": 3239,
  "serv@@": 3240,
  "seits": 3241,
  "zin@@": 3242,
  "Demokrati@@": 3243,
  "internationales": 3244,
  "Verfasser": 3245,
  "zuverlässig": 3246,
  "Metern": 3247,
  "Vergnügen": 3248,
  "Fahrzeug@@": 3249,
  "geograph@@": 3250,
  "änderung": 3251,
  "krieg": 3252,
  "obgleich": 3253,
  "ohnehin": 3254,
  "pass@@": 3255,
  "wü@@": 3256,
  "orientierten": 3257,
  "beschreiben": 3258,
  "Feststellung": 3259,
  "deutlichen": 3260,
  "Fi": 3261,
  "näh@@": 3262,
  "Nacht@@": 3263,
  "kommende": 3264,
  "Drittstaaten": 3265,
  "5,@@": 3266,
  "hebt": 3267,
  "Kaffe@@": 3268,
  "Einwanderer": 3269,
  "kno@@": 3270,
  "weißen": 3271,
  "Ungleich@@": 3272,
  "vertreter": 3273,
  "gefährden": 3274,
  "Empfänger": 3275,
  "teilte": 3276,
  "ics": 3277,
  "AC": 3278,
  "saison": 3279,
  "abwechslungs@@": 3280,
  "Konkurrenz": 3281,
  "1,5": 3282,
  "herzlichen": 3283,
  "erneuerbare": 3284,
  "lüssen": 3285,
  "Hügel": 3286,
  "elli@@": 3287,
  "gebühr": 3288,
  "ov@@": 3289,
  "einhalten": 3290,
  "ico": 3291,
  "fuhr@@": 3292,
  "blichen": 3293,
  "gio": 3294,
  "mische": 3295,
  "getötet": 3296,
  "Grundsätzen": 3297,
  "namens": 3298,
  "losigkeit": 3299,
  "Dok@@": 3300,
  "dreht": 3301,
  "iPhone": 3302,
  "versicherung": 3303,
  "Futter@@": 3304,
  "örtlichen": 3305,
  "freu@@": 3306,
  "luß": 3307,
  "Dienstleistung": 3308,
  "Gener@@": 3309,
  "Konjunktur@@": 3310,
  "führungen": 3311,
  "deutscher": 3312,
  "bor@@": 3313,
  "fel": 3314,
  "card": 3315,
  "Aufenthalts@@": 3316,
  "SQL": 3317,
  "regul@@": 3318,
  "einzugehen": 3319,
  "Schle@@": 3320,
  "nord@@": 3321,
  "Unternehmen@@": 3322,
  "bran@@": 3323,
  "lässi@@": 3324,
  "verantwor@@": 3325,
  "entscheidet": 3326,
  "Papier@@": 3327,
  "anstelle": 3328,
  "uter": 3329,
  "angs@@": 3330,
  "gelegten": 3331,
  "Las": 3332,
  "ute": 3333,
  "solide": 3334,
  "inos": 3335,
  "BMW": 3336,
  "instal@@": 3337,
  "back": 3338,
  "gefährliche": 3339,
  "Aktionsp@@": 3340,
  "bilder": 3341,
  "beach@@": 3342,
  "präsen@@": 3343,
  "Aufhebung": 3344,
  "Lang@@": 3345,
  "when": 3346,
  "beschleunigen": 3347,
  "¤": 3348,
  "terungen": 3349,
  "27.": 3350,
  "Marokko": 3351,
  "gelingen": 3352,
  "bereitung": 3353,
  "Py@@": 3354,
  "Versorgungs@@": 3355,
  "innov@@": 3356,
  "Referendum": 3357,
  "vergröß@@": 3358,
  "dachte": 3359,
  "teln": 3360,
  "Wesen": 3361,
  "berichte": 3362,
  "Besuchern": 3363,
  "Büros": 3364,
  "abends": 3365,
  "Proje@@": 3366,
  "erlangen": 3367,
  "Massage": 3368,
  "live": 3369,
  "überzeu@@": 3370,
  "Wiederherstellung": 3371,
  "Tom@@": 3372,
  "wäh@@": 3373,
  "Steuerzahler": 3374,
  "ating": 3375,
  "ux": 3376,
  "beruflichen": 3377,
  "Alltag": 3378,
  "tions": 3379,
  "Transfer": 3380,
  "machten": 3381,
  "bist": 3382,
  "jahre@@": 3383,
  "ony@@": 3384,
  "Fremd@@": 3385,
  "ausgehend": 3386,
  "bahnen": 3387,
  "andernfalls": 3388,
  "gesonder@@": 3389,
  "bewahrt": 3390,
  "kurzfristig": 3391,
  "mittlere": 3392,
  "Tag@@": 3393,
  "Wikitravel": 3394,
  "ausreich@@": 3395,
  "Ga@@": 3396,
  "AP": 3397,
  "ös": 3398,
  "Basis@@": 3399,
  "innen@@": 3400,
  "transparent": 3401,
  "ye": 3402,
  "jemals": 3403,
  "Bevölkerungs@@": 3404,
  "Beurteilung": 3405,
  "exklusive": 3406,
  "innere": 3407,
  "uen": 3408,
  "zeitgenöss@@": 3409,
  "rieren": 3410,
  "Gerichten": 3411,
  "phys@@": 3412,
  "fehl@@": 3413,
  "Wahrung": 3414,
  "Fischereipolitik": 3415,
  "Van": 3416,
  "wahl": 3417,
  "Verhand@@": 3418,
  "Foundation": 3419,
  "rum@@": 3420,
  "kn@@": 3421,
  "sche@@": 3422,
  "schränken": 3423,
  "Jan@@": 3424,
  "Fußball@@": 3425,
  "kab@@": 3426,
  "llen": 3427,
  "Aktion@@": 3428,
  "Kurse": 3429,
  "leitet": 3430,
  "run@@": 3431,
  "moder@@": 3432,
  "tren@@": 3433,
  "initi@@": 3434,
  "information": 3435,
  "Schmer@@": 3436,
  "kö@@": 3437,
  "Muster": 3438,
  "basierte": 3439,
  "eindrucks@@": 3440,
  "teilzunehmen": 3441,
  "Einschränkungen": 3442,
  "Bewohner": 3443,
  "vorteil@@": 3444,
  "72": 3445,
  "jeglicher": 3446,
  "verbesserte": 3447,
  "BO@@": 3448,
  "konto": 3449,
  "Kuba": 3450,
  "Phänomen": 3451,
  "kreis": 3452,
  "strit@@": 3453,
  "AN": 3454,
  "lers": 3455,
  "Anreise": 3456,
  "angenommenen": 3457,
  "lon@@": 3458,
  "Rahmenbedingungen": 3459,
  "ök@@": 3460,
  "leidet": 3461,
  "Puerto": 3462,
  "räum@@": 3463,
  "cs": 3464,
  "verständnis": 3465,
  "Thomas": 3466,
  "weitaus": 3467,
  "fro@@": 3468,
  "Heil@@": 3469,
  "new": 3470,
  "Autob@@": 3471,
  "Traum": 3472,
  "Team@@": 3473,
  "Komplettpreise": 3474,
  "entlichen": 3475,
  "registriert": 3476,
  "realistisch": 3477,
  "frischen": 3478,
  "jen@@": 3479,
  "vielfältigen": 3480,
  "Frequ@@": 3481,
  "erend": 3482,
  "Ah@@": 3483,
  "din@@": 3484,
  "Rußland": 3485,
  "boden": 3486,
  "leid": 3487,
  "Hör@@": 3488,
  "Anreize": 3489,
  "Cat@@": 3490,
  "Konstruktion": 3491,
  "fes": 3492,
  "Großen": 3493,
  "BSE": 3494,
  "Ele@@": 3495,
  "Work@@": 3496,
  "lass": 3497,
  "Rubrik": 3498,
  "konzipiert": 3499,
  "Fernseher": 3500,
  "beeinflusst": 3501,
  "gehe": 3502,
  "vorüber@@": 3503,
  "deutsch@@": 3504,
  "By@@": 3505,
  "ble": 3506,
  "Erzeugung": 3507,
  "starkes": 3508,
  "mieten": 3509,
  "Verabschiedung": 3510,
  "top@@": 3511,
  "orts": 3512,
  "einführen": 3513,
  "vergeben": 3514,
  "sonstige": 3515,
  "Tel@@": 3516,
  "SD@@": 3517,
  "normale": 3518,
  "mün@@": 3519,
  "ckung": 3520,
  "Menschenrechtsverletzungen": 3521,
  "ance": 3522,
  "Anweisungen": 3523,
  "geplanten": 3524,
  "hunder@@": 3525,
  "benannt": 3526,
  "serb@@": 3527,
  "führungs@@": 3528,
  "Robert": 3529,
  "produkt": 3530,
  "NRO": 3531,
  "zeichneten": 3532,
  "ausreichende": 3533,
  "ausserdem": 3534,
  "Trend": 3535,
  "Gum@@": 3536,
  "ablehnen": 3537,
  "Abgeordneter": 3538,
  "zellen": 3539,
  "Stur@@": 3540,
  "konkur@@": 3541,
  "erzeug@@": 3542,
  "kas@@": 3543,
  "wahl@@": 3544,
  "Fak@@": 3545,
  "cli@@": 3546,
  "Designer": 3547,
  "Desktop": 3548,
  "kritischen": 3549,
  "Optim@@": 3550,
  "zugute": 3551,
  "qualifizierte": 3552,
  "späteren": 3553,
  "hotels": 3554,
  "ald": 3555,
  "Saal": 3556,
  "Verletzungen": 3557,
  "160": 3558,
  "Klimawandels": 3559,
  "Optimierung": 3560,
  "siv@@": 3561,
  "unterstütz@@": 3562,
  "Arbeitgeber": 3563,
  "hersteller": 3564,
  "nete": 3565,
  "gegenseitigen": 3566,
  "fahrts@@": 3567,
  "ktiver": 3568,
  "stischen": 3569,
  "bindung": 3570,
  "Operation": 3571,
  "Tem@@": 3572,
  "General@@": 3573,
  "zunehmende": 3574,
  "gesammelt": 3575,
  "Glauben": 3576,
  "vorgehen": 3577,
  "Finanzen": 3578,
  "Nation": 3579,
  "Ve@@": 3580,
  "seri@@": 3581,
  "Woh@@": 3582,
  "xis": 3583,
  "George": 3584,
  "Pak@@": 3585,
  "Insel@@": 3586,
  "fantas@@": 3587,
  "glie@@": 3588,
  "rou@@": 3589,
  "zten": 3590,
  "vernünftige": 3591,
  "demonstri@@": 3592,
  "Export": 3593,
  "bevorzu@@": 3594,
  "ulen": 3595,
  "einnehmen": 3596,
  "kro@@": 3597,
  "natur@@": 3598,
  "mul@@": 3599,
  "Beratungen": 3600,
  "kommerziellen": 3601,
  "Balkan": 3602,
  "Blan@@": 3603,
  "Sitzungen": 3604,
  "posi@@": 3605,
  "Grünbuch": 3606,
  "Washington": 3607,
  "gutem": 3608,
  "tation": 3609,
  "fizi@@": 3610,
  "ressourcen": 3611,
  "verfüg@@": 3612,
  "mäß@@": 3613,
  "Kreativität": 3614,
  "ano@@": 3615,
  "Migration": 3616,
  "aktivitäten": 3617,
  "demokratisch": 3618,
  "erörtert": 3619,
  "nom@@": 3620,
  "priv@@": 3621,
  "Konzepte": 3622,
  "einstimmig": 3623,
  "Fei@@": 3624,
  "Betrug": 3625,
  "Verfolgung": 3626,
  "glichkeit": 3627,
  "Island": 3628,
  "komplex": 3629,
  "Besitzer": 3630,
  "Unternehmer": 3631,
  "spiegelt": 3632,
  "voneinander": 3633,
  "Techniken": 3634,
  "Art.": 3635,
  "lehnt": 3636,
  "Ecke": 3637,
  "Gerä@@": 3638,
  "drit@@": 3639,
  "Bul@@": 3640,
  "Gran": 3641,
  "auseinander@@": 3642,
  "konsequ@@": 3643,
  "Energiepolitik": 3644,
  "trags@@": 3645,
  "enttäuscht": 3646,
  "emen": 3647,
  "Branchen": 3648,
  "atten": 3649,
  "interpre@@": 3650,
  "Kabel@@": 3651,
  "ome": 3652,
  "2012": 3653,
  "Vorgaben": 3654,
  "wen": 3655,
  "Flugzeug": 3656,
  "eingeräumt": 3657,
  "immerhin": 3658,
  "frisch": 3659,
  "Übersetzungen": 3660,
  "Content": 3661,
  "legten": 3662,
  "Herberge": 3663,
  "Institu@@": 3664,
  "idealer": 3665,
  "Schluss@@": 3666,
  "Ausbeutung": 3667,
  "sätzen": 3668,
  "alisierungs@@": 3669,
  "54": 3670,
  "Anregungen": 3671,
  "Anwesenheit": 3672,
  "arische": 3673,
  "erneuerbaren": 3674,
  "Theorie": 3675,
  "respektiert": 3676,
  "Erwägung": 3677,
  "realisieren": 3678,
  "Gewinne": 3679,
  "Taste": 3680,
  "Café": 3681,
  "Spannungen": 3682,
  "Produzenten": 3683,
  "dien": 3684,
  "Studium": 3685,
  "beobach@@": 3686,
  "Europ@@": 3687,
  "wies": 3688,
  "these": 3689,
  "Tru@@": 3690,
  "ación": 3691,
  "beabsichti@@": 3692,
  "basierten": 3693,
  "vernünftig": 3694,
  "ruft": 3695,
  "angeneh@@": 3696,
  "trit@@": 3697,
  "kompatibel": 3698,
  "11.@@": 3699,
  "beruhen": 3700,
  "gebraucht": 3701,
  "pt": 3702,
  "fortgesetzt": 3703,
  "korre@@": 3704,
  "keiten": 3705,
  "hon@@": 3706,
  "esti@@": 3707,
  "geschafft": 3708,
  "ektor": 3709,
  "Verlängerung": 3710,
  "kriterien": 3711,
  "Home": 3712,
  "Leuten": 3713,
  "Pack@@": 3714,
  "arbeits@@": 3715,
  "Emissions@@": 3716,
  "ausführen": 3717,
  "Bezahlung": 3718,
  "verzeichnen": 3719,
  "konstruktive": 3720,
  "parti@@": 3721,
  "Touren": 3722,
  "Logik": 3723,
  "schließe": 3724,
  "interessieren": 3725,
  "Solar@@": 3726,
  "Dol@@": 3727,
  "fühlt": 3728,
  "ordnungsgemäß": 3729,
  "Demokraten": 3730,
  "liz@@": 3731,
  "funk@@": 3732,
  "§": 3733,
  "Los": 3734,
  "Feier@@": 3735,
  "ziel": 3736,
  "Archiv": 3737,
  "durchzusetzen": 3738,
  "fiel": 3739,
  "Nam@@": 3740,
  "B5": 3741,
  "bedauere": 3742,
  "Exper@@": 3743,
  "Freihandels@@": 3744,
  "abe": 3745,
  "handels": 3746,
  "Erfolgs@@": 3747,
  "familien@@": 3748,
  "wirkungs@@": 3749,
  "Million": 3750,
  "University": 3751,
  "Attraktionen": 3752,
  "verk@@": 3753,
  "Tel": 3754,
  "Deb@@": 3755,
  "endgültigen": 3756,
  "aufgerufen": 3757,
  "süd@@": 3758,
  "irgendwo": 3759,
  "begleiten": 3760,
  "system@@": 3761,
  "fliegen": 3762,
  "ani": 3763,
  "übergeben": 3764,
  "Sony": 3765,
  "Inspe@@": 3766,
  "Aktualisierung": 3767,
  "erklär@@": 3768,
  "Budapest": 3769,
  "dargelegt": 3770,
  "eigentlichen": 3771,
  "q@@": 3772,
  "auen": 3773,
  "Konzern@@": 3774,
  "disch": 3775,
  "ausgesch@@": 3776,
  "Ausgrenzung": 3777,
  "Galerie": 3778,
  "vorrangi@@": 3779,
  "verstärkte": 3780,
  "op": 3781,
  "würdi@@": 3782,
  "Ausgangs@@": 3783,
  "berat@@": 3784,
  "Menschenrechten": 3785,
  "Bewertungen": 3786,
  "Funktionieren": 3787,
  "rischen": 3788,
  "Tochter@@": 3789,
  "arbeitungs@@": 3790,
  "Umstände": 3791,
  "angeschlossen": 3792,
  "Begründung": 3793,
  "vergleichen": 3794,
  "Abenteuer": 3795,
  "Beste": 3796,
  "Fähr@@": 3797,
  "ernsthafte": 3798,
  "q": 3799,
  "ausser@@": 3800,
  "Tickets": 3801,
  "transpor@@": 3802,
  "Handlungen": 3803,
  "Für@@": 3804,
  "qualifizi@@": 3805,
  "Abstimmungs@@": 3806,
  "schn@@": 3807,
  "verliehen": 3808,
  "Spre@@": 3809,
  "ech@@": 3810,
  "exklusiven": 3811,
  "icht@@": 3812,
  "Gespräch": 3813,
  "Rückgang": 3814,
  "II.": 3815,
  "Mehrwert": 3816,
  "europä@@": 3817,
  "zugreifen": 3818,
  "Betrugs@@": 3819,
  "Tschech@@": 3820,
  "now": 3821,
  "zusätzlicher": 3822,
  "vertrauens@@": 3823,
  "Gemü@@": 3824,
  "UM@@": 3825,
  "termin@@": 3826,
  "Cr@@": 3827,
  "überwachung": 3828,
  "gängig": 3829,
  "Werken": 3830,
  "zuführen": 3831,
  "thilfe": 3832,
  "morali@@": 3833,
  "erbringen": 3834,
  "widerspiegelt": 3835,
  "Camping@@": 3836,
  "Meil@@": 3837,
  "andin@@": 3838,
  "Reno@@": 3839,
  "unberühr@@": 3840,
  "ffe@@": 3841,
  "Erhebung": 3842,
  "Downlo@@": 3843,
  "zufriedenheit": 3844,
  "dent": 3845,
  "relevant": 3846,
  "Band@@": 3847,
  "CA": 3848,
  "Konvents": 3849,
  "pfung": 3850,
  "ende@@": 3851,
  "mus@@": 3852,
  "kritisieren": 3853,
  "Stoffen": 3854,
  "Gemeinschaftsrecht": 3855,
  "pflicht": 3856,
  "Serviceleistungen": 3857,
  "tus": 3858,
  "1986": 3859,
  "ensu@@": 3860,
  "ato@@": 3861,
  "erstattet": 3862,
  "aufw@@": 3863,
  "holz": 3864,
  "Voraus@@": 3865,
  "aufhalten": 3866,
  "Patten": 3867,
  "halbe": 3868,
  "Paar": 3869,
  "telefonisch": 3870,
  "übernahm": 3871,
  "home": 3872,
  "hinnehmen": 3873,
  "zuständige": 3874,
  "herrschaft": 3875,
  "them@@": 3876,
  "Modell@@": 3877,
  "Bol@@": 3878,
  "Reda@@": 3879,
  "make": 3880,
  "hofes": 3881,
  "artiges": 3882,
  "Protektionismus": 3883,
  "korb": 3884,
  "mem@@": 3885,
  "Dauer@@": 3886,
  "Pazi@@": 3887,
  "Zertifikat": 3888,
  "ators": 3889,
  "bon": 3890,
  "Glückwunsch": 3891,
  "zuhalten": 3892,
  "tam@@": 3893,
  "Kirchen@@": 3894,
  "erender": 3895,
  "richtlinien": 3896,
  "Erzeu@@": 3897,
  "Kompetenz@@": 3898,
  "zurufen": 3899,
  "Bearbeitungs@@": 3900,
  "nein": 3901,
  "Schlußfolgerungen": 3902,
  "Delegationen": 3903,
  "Superior": 3904,
  "Zusagen": 3905,
  "ordn@@": 3906,
  "herausge@@": 3907,
  "das@@": 3908,
  "Dienstleister": 3909,
  "500@@": 3910,
  "serie": 3911,
  "Kohäsion": 3912,
  "Kompromiß": 3913,
  "Unregelmäßigkeiten": 3914,
  "tagung": 3915,
  "erfahrene": 3916,
  "Gestalt": 3917,
  "Weltkrieg@@": 3918,
  "verschlechter@@": 3919,
  "geber@@": 3920,
  "obliegt": 3921,
  "gepflegt": 3922,
  "vorzugehen": 3923,
  "Vermögen": 3924,
  "überdenken": 3925,
  "anzeige": 3926,
  "ris": 3927,
  "Benz@@": 3928,
  "Nachrichten@@": 3929,
  "03@@": 3930,
  "Gesetzgebungs@@": 3931,
  "akadem@@": 3932,
  "umen": 3933,
  "sicherheits@@": 3934,
  "voraussichtlich": 3935,
  "ien@@": 3936,
  "handelte": 3937,
  "Assozi@@": 3938,
  "isierte": 3939,
  "Fußgänger@@": 3940,
  "Gewährung": 3941,
  "Germany": 3942,
  "Note": 3943,
  "besorgniserre@@": 3944,
  "aufgeben": 3945,
  "Umstellung": 3946,
  "letter@@": 3947,
  "liter@@": 3948,
  "dd@@": 3949,
  "Protokol@@": 3950,
  "uneingeschränkte": 3951,
  "anbieter": 3952,
  "sparteien": 3953,
  "Fitnesscenter": 3954,
  "tics": 3955,
  "denheit": 3956,
  "infolgedessen": 3957,
  "Reparatur": 3958,
  "studierte": 3959,
  "Hier@@": 3960,
  "Anleger": 3961,
  "kampf@@": 3962,
  "Rechtsrahmen": 3963,
  "vernünf@@": 3964,
  "chtig": 3965,
  "Softwa@@": 3966,
  "Verw@@": 3967,
  "historischer": 3968,
  "Grö@@": 3969,
  "Überleben": 3970,
  "Solarium": 3971,
  "Geschwindi@@": 3972,
  "artier": 3973,
  "begab": 3974,
  "Arbeitszeit": 3975,
  "Spen@@": 3976,
  "stilvolle": 3977,
  "Quad@@": 3978,
  "verdi@@": 3979,
  "BM@@": 3980,
  "herkömmlichen": 3981,
  "Flüchtlingen": 3982,
  "neo@@": 3983,
  "Fische": 3984,
  "Süß@@": 3985,
  "geschlossen@@": 3986,
  "exi@@": 3987,
  "Publi@@": 3988,
  "wälte": 3989,
  "Inneren": 3990,
  "zo": 3991,
  "holt": 3992,
  "abgel@@": 3993,
  "rationen": 3994,
  "Vertrau@@": 3995,
  "antwortet": 3996,
  "usses": 3997,
  "experim@@": 3998,
  "partnern": 3999,
  "appelliere": 4000,
  "öpfung": 4001,
  "Technologi@@": 4002,
  "marken": 4003,
  "Blair": 4004,
  "Einstimm@@": 4005,
  "strecken": 4006,
  "kultureller": 4007,
  "trieb@@": 4008,
  "tilien": 4009,
  "erledigt": 4010,
  "Interpretation": 4011,
  "Entschul@@": 4012,
  "aufkommen": 4013,
  "wunderbar": 4014,
  "ferenz": 4015,
  "Feedback": 4016,
  "zeitlich": 4017,
  "Beg@@": 4018,
  "ME": 4019,
  "funktions@@": 4020,
  "erledigen": 4021,
  "Arab@@": 4022,
  "Flugzeug@@": 4023,
  "listet": 4024,
  "Fotografen": 4025,
  "kontinuierliche": 4026,
  "Program@@": 4027,
  "durchschnit@@": 4028,
  "View": 4029,
  "unvergleich@@": 4030,
  "gau": 4031,
  "Folter": 4032,
  "Zeitalter": 4033,
  "Verhinderung": 4034,
  "einhalb": 4035,
  "Schulung": 4036,
  "wünschte": 4037,
  "away": 4038,
  "ätzen": 4039,
  "Hotelsafe": 4040,
  "Einträge": 4041,
  "appar@@": 4042,
  "Auszeichnung": 4043,
  "Botschaften": 4044,
  "Aff@@": 4045,
  "bevorzugen": 4046,
  "eingeschrän@@": 4047,
  "zia": 4048,
  "ühlen": 4049,
  "streiten": 4050,
  "Konsolidierung": 4051,
  "denz@@": 4052,
  "Plätzen": 4053,
  "kateg@@": 4054,
  "malen": 4055,
  "diplomatischen": 4056,
  "echtes": 4057,
  "herbei@@": 4058,
  "besitz@@": 4059,
  "Erholungs@@": 4060,
  "Gebäu@@": 4061,
  "ausgegangen": 4062,
  "Zent@@": 4063,
  "histor@@": 4064,
  "konstitution@@": 4065,
  "Marco": 4066,
  "draußen": 4067,
  "video": 4068,
  "geschah": 4069,
  "chi": 4070,
  "Aktualität": 4071,
  "bemü@@": 4072,
  "japanische": 4073,
  "reichhaltiges": 4074,
  "Ungleichheit": 4075,
  "längeren": 4076,
  "steil": 4077,
  "Übersetzer": 4078,
  "sea": 4079,
  "vertrieben": 4080,
  "schwarze": 4081,
  "griffs": 4082,
  "herausragende": 4083,
  "Rabatt": 4084,
  "augen@@": 4085,
  "zwecke": 4086,
  "PCs": 4087,
  "iranischen": 4088,
  "befreit": 4089,
  "anerkannten": 4090,
  "Gastronomie": 4091,
  "sichtliche": 4092,
  "Begrenzung": 4093,
  "ausschlaggeb@@": 4094,
  "Programmier@@": 4095,
  "Befug@@": 4096,
  "verarbeit@@": 4097,
  "Reisende": 4098,
  "Standorte": 4099,
  "Deut@@": 4100,
  "té@@": 4101,
  "bezieh@@": 4102,
  "Gefühle": 4103,
  "Beantwortung": 4104,
  "anspruchsvollen": 4105,
  "alition": 4106,
  "find": 4107,
  "large": 4108,
  "Road": 4109,
  "Käl@@": 4110,
  "Stoff@@": 4111,
  "brücke": 4112,
  "ttaus@@": 4113,
  "21.@@": 4114,
  "aufgeteilt": 4115,
  "Verschlechterung": 4116,
  "galt": 4117,
  "ira": 4118,
  "apartment": 4119,
  "point": 4120,
  "mächtigen": 4121,
  "beliebte": 4122,
  "hielten": 4123,
  "e.V.": 4124,
  "unterschied@@": 4125,
  "umfangreich@@": 4126,
  "Pakt": 4127,
  "anci@@": 4128,
  "Münzen": 4129,
  "ganzes": 4130,
  "aussieht": 4131,
  "sprung": 4132,
  "Schwächen": 4133,
  "Abreise": 4134,
  "aire": 4135,
  "Vö@@": 4136,
  "äus@@": 4137,
  "Erste": 4138,
  "Servern": 4139,
  "Vene@@": 4140,
  "zwingend": 4141,
  "Weihnachten": 4142,
  "kontinuier@@": 4143,
  "Strafe": 4144,
  "Anbau": 4145,
  "Jahrestag": 4146,
  "sidentin": 4147,
  "Tool@@": 4148,
  "inierte": 4149,
  "Darlehen": 4150,
  "Bettwäsche": 4151,
  "auseln": 4152,
  "Bildes": 4153,
  "Research": 4154,
  "Kooper@@": 4155,
  "Nordkorea": 4156,
  "gleicht": 4157,
  "potenziellen": 4158,
  "aufgegriffen": 4159,
  "Ermitt@@": 4160,
  "splan@@": 4161,
  "brauch@@": 4162,
  "sinken": 4163,
  "Öffent@@": 4164,
  "tie": 4165,
  "stande": 4166,
  "Gewerk@@": 4167,
  "Os@@": 4168,
  "Ungleichheiten": 4169,
  "verwandelt": 4170,
  "Evaluierung": 4171,
  "bet": 4172,
  "ROM": 4173,
  "ystems": 4174,
  "spiegel": 4175,
  "zügig": 4176,
  "abger@@": 4177,
  "maxim@@": 4178,
  "timm@@": 4179,
  "komb@@": 4180,
  "exportieren": 4181,
  "Galileo": 4182,
  "riti@@": 4183,
  "rol": 4184,
  "79": 4185,
  "dlern": 4186,
  "17.@@": 4187,
  "steigerung": 4188,
  "Lou@@": 4189,
  "einheimischen": 4190,
  "bis@@": 4191,
  "9001": 4192,
  "press@@": 4193,
  "8,@@": 4194,
  "zucht": 4195,
  "vorgaben": 4196,
  "Shir@@": 4197,
  "Klu@@": 4198,
  "Metro@@": 4199,
  "europ@@": 4200,
  "Angestellten": 4201,
  "Rath@@": 4202,
  "formu@@": 4203,
  "öser": 4204,
  "initiative": 4205,
  "shaush@@": 4206,
  "Attra@@": 4207,
  "wandlung": 4208,
  "bein@@": 4209,
  "Sym@@": 4210,
  "ancen": 4211,
  "sports": 4212,
  "ags": 4213,
  "Gleiche": 4214,
  "Ath@@": 4215,
  "mord": 4216,
  "repräsent@@": 4217,
  "entzieht": 4218,
  "sus": 4219,
  "Schauspiel@@": 4220,
  "ernamen": 4221,
  "höherer": 4222,
  "illeg@@": 4223,
  "Konservativen": 4224,
  "sont": 4225,
  "Ansehen": 4226,
  "Bestände": 4227,
  "Algerien": 4228,
  "Menschenrecht@@": 4229,
  "Schnittstellen": 4230,
  "verlaufen": 4231,
  "sitzt": 4232,
  "Riviera": 4233,
  "plant@@": 4234,
  "skep@@": 4235,
  "Instabilität": 4236,
  "GT@@": 4237,
  "fache": 4238,
  "Zeichen@@": 4239,
  "ña": 4240,
  "nerin": 4241,
  "Unfall": 4242,
  "Lärm": 4243,
  "link": 4244,
  "pur": 4245,
  "univers@@": 4246,
  "Obst@@": 4247,
  "kurzfris@@": 4248,
  "Villen": 4249,
  "Riesen@@": 4250,
  "privat": 4251,
  "Net": 4252,
  "unternimmt": 4253,
  "à@@": 4254,
  "Europäisches": 4255,
  "Sozialisten": 4256,
  "kost@@": 4257,
  "sätz@@": 4258,
  "wesent@@": 4259,
  "Jor@@": 4260,
  "vereinbar": 4261,
  "orientieren": 4262,
  "schiff@@": 4263,
  "Kommissars": 4264,
  "tas": 4265,
  "blich": 4266,
  "Association": 4267,
  "fürchte": 4268,
  "1980": 4269,
  "Vorsorge@@": 4270,
  "schnelles": 4271,
  "Wäldern": 4272,
  "geplante": 4273,
  "Partnerschafts@@": 4274,
  "Durchschnit@@": 4275,
  "Rettungs@@": 4276,
  "Herstell@@": 4277,
  "Lebensdauer": 4278,
  "organisator@@": 4279,
  "Ausflug": 4280,
  "ANT@@": 4281,
  "Interie@@": 4282,
  "dion": 4283,
  "brand@@": 4284,
  "schal@@": 4285,
  "1985": 4286,
  "fortgeschrit@@": 4287,
  "DR@@": 4288,
  "mitzuteilen": 4289,
  "Inflations@@": 4290,
  "Bestandteile": 4291,
  "dago@@": 4292,
  "gst": 4293,
  "israelische": 4294,
  "sia": 4295,
  "Pr@@": 4296,
  "kombinieren": 4297,
  "läufigen": 4298,
  "sé@@": 4299,
  "BR@@": 4300,
  "Ble@@": 4301,
  "Haupts@@": 4302,
  "Infrastrukturen": 4303,
  "Fuss@@": 4304,
  "Symb@@": 4305,
  "geschwindi@@": 4306,
  "forderungen": 4307,
  "Isol@@": 4308,
  "Chef": 4309,
  "verschul@@": 4310,
  "ästhe@@": 4311,
  "punkt@@": 4312,
  "Zie@@": 4313,
  "eriert": 4314,
  "unen": 4315,
  "aufnahmen": 4316,
  "Controller": 4317,
  "kle": 4318,
  "mittel-": 4319,
  "KW": 4320,
  "ometer": 4321,
  "privater": 4322,
  "Klaren": 4323,
  "Katastrophen@@": 4324,
  "frau": 4325,
  "Vorbe@@": 4326,
  "Gehir@@": 4327,
  "zwecken": 4328,
  "Komplex": 4329,
  "liebe@@": 4330,
  "einzigartiges": 4331,
  "Ref": 4332,
  "erstre@@": 4333,
  "bester": 4334,
  "olo": 4335,
  "Endes": 4336,
  "gieb@@": 4337,
  "CH": 4338,
  "genetisch": 4339,
  "Palast": 4340,
  "dameri@@": 4341,
  "europa@@": 4342,
  "behindern": 4343,
  "klo@@": 4344,
  "Louis": 4345,
  "firma": 4346,
  "gemeldet": 4347,
  "Königreichs": 4348,
  "versetzen": 4349,
  "strahlung": 4350,
  "verdanken": 4351,
  "verarbeiten": 4352,
  "Misch@@": 4353,
  "Fischereiabkommen": 4354,
  "Elektriz@@": 4355,
  "Amp@@": 4356,
  "Estland": 4357,
  "ras": 4358,
  "Christdemokraten": 4359,
  "schätzt": 4360,
  "Texten": 4361,
  "Pressemit@@": 4362,
  "gelassen@@": 4363,
  "mittelständi@@": 4364,
  "Poten@@": 4365,
  "Dekor@@": 4366,
  "red": 4367,
  "ansprüche": 4368,
  "mals": 4369,
  "deinem": 4370,
  "luxuri@@": 4371,
  "en.@@": 4372,
  "Stadium": 4373,
  "Tiefe": 4374,
  "nördlich": 4375,
  "LIN@@": 4376,
  "mpft": 4377,
  "östlich": 4378,
  "Unterbrech@@": 4379,
  "Fest": 4380,
  "tigsten": 4381,
  "positives": 4382,
  "bestehend": 4383,
  "ties": 4384,
  "Fut@@": 4385,
  "verbundene": 4386,
  "greifende": 4387,
  "medien": 4388,
  "Stim@@": 4389,
  "A.@@": 4390,
  "blauen": 4391,
  "Momente": 4392,
  "Korrektur": 4393,
  "value": 4394,
  "mitt@@": 4395,
  "Was": 4396,
  "Krist@@": 4397,
  "elektrischen": 4398,
  "tin@@": 4399,
  "glän@@": 4400,
  "å": 4401,
  "bürgerschaft": 4402,
  "Messen": 4403,
  "resi@@": 4404,
  "illa": 4405,
  "behilflich": 4406,
  "bekräftigen": 4407,
  "nutzung": 4408,
  "resultier@@": 4409,
  "überarbeitet": 4410,
  "wissenschaft@@": 4411,
  "SY@@": 4412,
  "untersagt": 4413,
  "Ein-": 4414,
  "verhandelt": 4415,
  "standardmäßig": 4416,
  "za@@": 4417,
  "Ehe@@": 4418,
  "ermaßen": 4419,
  "abzugeben": 4420,
  "Bonus@@": 4421,
  "synchron@@": 4422,
  "ume": 4423,
  "beauftragte": 4424,
  "sowje@@": 4425,
  "Rohstoffe": 4426,
  "hoff@@": 4427,
  "Mannschaft": 4428,
  "denkbar": 4429,
  "kürzen": 4430,
  "sinstrument": 4431,
  "kür@@": 4432,
  "ückt": 4433,
  "Past@@": 4434,
  "Innenhof": 4435,
  "ckel": 4436,
  "erzeugung": 4437,
  "gemeint": 4438,
  "konver@@": 4439,
  "bed@@": 4440,
  "felt": 4441,
  "Gerü@@": 4442,
  "many": 4443,
  "Gewähr": 4444,
  "leuten": 4445,
  "transparente": 4446,
  "Verpack@@": 4447,
  "komplizierten": 4448,
  "angemessener": 4449,
  "verknü@@": 4450,
  "forder@@": 4451,
  "pas": 4452,
  "Harmonie": 4453,
  "wohin": 4454,
  "voranzutreiben": 4455,
  "Bedrohungen": 4456,
  "wirksam@@": 4457,
  "genommenen": 4458,
  "religi@@": 4459,
  "Elektronik": 4460,
  "unterschiedlichsten": 4461,
  "cam@@": 4462,
  "83": 4463,
  "steil@@": 4464,
  "station@@": 4465,
  "Mart@@": 4466,
  "Tari@@": 4467,
  "Dör@@": 4468,
  "Immunität": 4469,
  "massiven": 4470,
  "Lor@@": 4471,
  "Kolle@@": 4472,
  "erweise": 4473,
  "gehalt": 4474,
  "Tennis": 4475,
  "alls": 4476,
  "samt": 4477,
  "Italiens": 4478,
  "Schulz": 4479,
  "demselben": 4480,
  "fron@@": 4481,
  "Nar@@": 4482,
  "beugen": 4483,
  "Kongo": 4484,
  "seit@@": 4485,
  "erbar": 4486,
  "Nachtleben": 4487,
  "tempor@@": 4488,
  "Abonne@@": 4489,
  "Wartungs@@": 4490,
  "tier": 4491,
  "folgte": 4492,
  "Kart@@": 4493,
  "alog@@": 4494,
  "begrüß@@": 4495,
  "einzeln": 4496,
  "verantwortung": 4497,
  "Gepäckraum": 4498,
  "cur@@": 4499,
  "Block": 4500,
  "Filter@@": 4501,
  "win": 4502,
  "verläss@@": 4503,
  "gewöhnlichen": 4504,
  "Wissens": 4505,
  "indischen": 4506,
  "henden": 4507,
  "Musli@@": 4508,
  "annten": 4509,
  "besuchte": 4510,
  "offizi@@": 4511,
  "Übersetz@@": 4512,
  "ahn": 4513,
  "begeben": 4514,
  "Bibliotheken": 4515,
  "Rep@@": 4516,
  "Motiv@@": 4517,
  "ado@@": 4518,
  "gekrön@@": 4519,
  "Management@@": 4520,
  "ball@@": 4521,
  "ernähr@@": 4522,
  "Reichweite": 4523,
  "atisch": 4524,
  "Einsparungen": 4525,
  "gedenkt": 4526,
  "luxuriösen": 4527,
  "Zukunfts@@": 4528,
  "Zeitschrift": 4529,
  "äter": 4530,
  "geis@@": 4531,
  "Portfolio": 4532,
  "Badewanne": 4533,
  "r.@@": 4534,
  "wörter": 4535,
  "luß@@": 4536,
  "Meerblick": 4537,
  "Fili@@": 4538,
  "Boutique": 4539,
  "dimension@@": 4540,
  "bege@@": 4541,
  "Song": 4542,
  "graf@@": 4543,
  "abgedeckt": 4544,
  "dität": 4545,
  "amm": 4546,
  "Wall@@": 4547,
  "Gut": 4548,
  "äume": 4549,
  "Grafik": 4550,
  "hs": 4551,
  "Lieferungen": 4552,
  "Jak@@": 4553,
  "kum@@": 4554,
  "ehrgeizige": 4555,
  "akter@@": 4556,
  "PE": 4557,
  "Schlacht": 4558,
  "Chal@@": 4559,
  "Yo@@": 4560,
  "Letz@@": 4561,
  "solidar@@": 4562,
  "DEN": 4563,
  "multilateralen": 4564,
  "schaftlicher": 4565,
  "krei@@": 4566,
  "bra": 4567,
  "trages": 4568,
  "schwä@@": 4569,
  "erholsamen": 4570,
  "gründete": 4571,
  "schre@@": 4572,
  "Funktionsweise": 4573,
  "disku@@": 4574,
  "gebaute": 4575,
  "Nordirland": 4576,
  "essor": 4577,
  "Sudan": 4578,
  "Gehäuse": 4579,
  "Blü@@": 4580,
  "Glo@@": 4581,
  "Ros@@": 4582,
  "Mitgliedsländer": 4583,
  "aktionen": 4584,
  "verbrauch": 4585,
  "Subsidiaritätsprinzip": 4586,
  "repräsentiert": 4587,
  "nun@@": 4588,
  "Rech@@": 4589,
  "agen@@": 4590,
  "herrschenden": 4591,
  "Dr@@": 4592,
  "Zeug@@": 4593,
  "jenige": 4594,
  "Trä@@": 4595,
  "mutz@@": 4596,
  "machung": 4597,
  "enstein": 4598,
  "debatte": 4599,
  "Korrektur@@": 4600,
  "unverändert": 4601,
  "fluss@@": 4602,
  "Fro@@": 4603,
  "älen": 4604,
  "tigste": 4605,
  "plung": 4606,
  "inu@@": 4607,
  "Festivals": 4608,
  "jahres": 4609,
  "alisierungen": 4610,
  "Nav@@": 4611,
  "Hochschulen": 4612,
  "Linken": 4613,
  "geeinigt": 4614,
  "Anfänger": 4615,
  "bik": 4616,
  "Berat@@": 4617,
  "birgt": 4618,
  "Multimedia": 4619,
  "beschleunigt": 4620,
  "Teilnehmer@@": 4621,
  "Migrations@@": 4622,
  "verlängern": 4623,
  "Übereinkunft": 4624,
  "Blumen": 4625,
  "ergie": 4626,
  "ban": 4627,
  "Snacks": 4628,
  "üpp@@": 4629,
  "hafen": 4630,
  "empfehle": 4631,
  "chner": 4632,
  "zyklus": 4633,
  "Chile": 4634,
  "wünsch@@": 4635,
  "dor": 4636,
  "fris@@": 4637,
  "Gesicht@@": 4638,
  "widerspiegeln": 4639,
  "bilaterale": 4640,
  "exist@@": 4641,
  "häufi@@": 4642,
  "Inhalts@@": 4643,
  "Zah@@": 4644,
  "exklu@@": 4645,
  "bedeutender": 4646,
  "Super": 4647,
  "Südtirol": 4648,
  "Mar": 4649,
  "Kapitalismus": 4650,
  "weren": 4651,
  "menden": 4652,
  "warme": 4653,
  "Abfahrt": 4654,
  "Partition": 4655,
  "vorgesehene": 4656,
  "gesteuert": 4657,
  "lasten": 4658,
  "log": 4659,
  "wohnt": 4660,
  "katastrop@@": 4661,
  "Außengrenzen": 4662,
  "Eis": 4663,
  "stellern": 4664,
  "enswerten": 4665,
  "geheim@@": 4666,
  "Autorität": 4667,
  "ext": 4668,
  "Zertifik@@": 4669,
  "Entfer@@": 4670,
  "vereinen": 4671,
  "dierten": 4672,
  "eigent@@": 4673,
  "Label": 4674,
  "rechnet": 4675,
  "amen@@": 4676,
  "Versicherung": 4677,
  "Eintritts@@": 4678,
  "ae@@": 4679,
  "entsprechender": 4680,
  "Bek@@": 4681,
  "Fünf@@": 4682,
  "zulegen": 4683,
  "Fund@@": 4684,
  "Fall@@": 4685,
  "berechnen": 4686,
  "zusammengefasst": 4687,
  "Defizit": 4688,
  "Ents@@": 4689,
  "Sozialpartner": 4690,
  "84": 4691,
  "lier": 4692,
  "vorwiegend": 4693,
  "gliches": 4694,
  "Leser": 4695,
  "Refle@@": 4696,
  "high": 4697,
  "restri@@": 4698,
  "Kamer@@": 4699,
  "prüft": 4700,
  "Meinungsäußerung": 4701,
  "merkt": 4702,
  "Energiem@@": 4703,
  "bettzimmer": 4704,
  "IE": 4705,
  "Reader": 4706,
  "EP@@": 4707,
  "hand": 4708,
  "verschlüssel@@": 4709,
  "beunruhigt": 4710,
  "Olymp@@": 4711,
  "beeindruckenden": 4712,
  "sole": 4713,
  "kommend": 4714,
  "Haushaltsjahr": 4715,
  "gängigen": 4716,
  "enttäu@@": 4717,
  "verblei@@": 4718,
  "Gefähr@@": 4719,
  "wissenschaftlich": 4720,
  "ath": 4721,
  "Der@@": 4722,
  "belastung": 4723,
  "Exempl@@": 4724,
  "verwandeln": 4725,
  "Ergeb@@": 4726,
  "inkl": 4727,
  "jet@@": 4728,
  "ultur": 4729,
  "strand": 4730,
  "berechti@@": 4731,
  "Beobachtungs@@": 4732,
  "alternativ": 4733,
  "Tempel": 4734,
  "rung": 4735,
  "Flusses": 4736,
  "lit@@": 4737,
  "Hauptziel": 4738,
  "therapeu@@": 4739,
  "Prü@@": 4740,
  "stationen": 4741,
  "Koch@@": 4742,
  "Auftrag@@": 4743,
  "mär@@": 4744,
  "verlin@@": 4745,
  "aktuell@@": 4746,
  "Layout": 4747,
  "slowak@@": 4748,
  "Berechn@@": 4749,
  "ffern": 4750,
  "Stabilisierung": 4751,
  "Monta@@": 4752,
  "Diagno@@": 4753,
  "Varianten": 4754,
  "Übernachtungen": 4755,
  "nummern": 4756,
  "Schaltfläche": 4757,
  "Kron@@": 4758,
  "wahrgenommen": 4759,
  "einwand@@": 4760,
  "Biokraft@@": 4761,
  "überwälti@@": 4762,
  "enter@@": 4763,
  "sicherh@@": 4764,
  "Mé@@": 4765,
  "transport": 4766,
  "gerlich": 4767,
  "Mensch@@": 4768,
  "Den": 4769,
  "kehrungen": 4770,
  "schot@@": 4771,
  "Amster@@": 4772,
  "Security": 4773,
  "Füßen": 4774,
  "Aufstieg": 4775,
  "Wiederein@@": 4776,
  "til@@": 4777,
  "stem": 4778,
  "modul@@": 4779,
  "Krebs": 4780,
  "Armen@@": 4781,
  "Vic@@": 4782,
  "Energiet@@": 4783,
  "Medik@@": 4784,
  "Konsequenz": 4785,
  "altern@@": 4786,
  "typ": 4787,
  "blin@@": 4788,
  "KG": 4789,
  "klingt": 4790,
  "Arbeitsplat@@": 4791,
  "möbli@@": 4792,
  "gewichte": 4793,
  "Bemühen": 4794,
  "ENT@@": 4795,
  "aufmerk@@": 4796,
  "Filmen": 4797,
  "bia": 4798,
  "denz": 4799,
  "Richtungen": 4800,
  "kulation": 4801,
  "Frü@@": 4802,
  "schweigen": 4803,
  "Cala": 4804,
  "Jap@@": 4805,
  "rote": 4806,
  "Geduld": 4807,
  "Shutt@@": 4808,
  "setzbar": 4809,
  "restlichen": 4810,
  "Rücksicht": 4811,
  "Pilo@@": 4812,
  "Finger@@": 4813,
  "mende": 4814,
  "strukturellen": 4815,
  "filter": 4816,
  "gangs@@": 4817,
  "Einigkeit": 4818,
  "konkreter": 4819,
  "Sendung": 4820,
  "abstimmung": 4821,
  "verlang@@": 4822,
  "Naturschutz@@": 4823,
  "Dring@@": 4824,
  "og@@": 4825,
  "diox@@": 4826,
  "belebung": 4827,
  "arti@@": 4828,
  "gli@@": 4829,
  "ordnungen": 4830,
  "vertiefen": 4831,
  "attraktiv": 4832,
  "ihrerseits": 4833,
  "toff@@": 4834,
  "Vertrauens@@": 4835,
  "Boots@@": 4836,
  "Distribut@@": 4837,
  "Priv@@": 4838,
  "Cup": 4839,
  "Fitnessraum": 4840,
  "Atlantik": 4841,
  "ry@@": 4842,
  "Spaziergän@@": 4843,
  "großzügige": 4844,
  "gig": 4845,
  "Kürzungen": 4846,
  "Stable": 4847,
  "hilfsbereit": 4848,
  "Kino": 4849,
  "bewährten": 4850,
  "Zeich@@": 4851,
  "Ticket@@": 4852,
  "Vorder@@": 4853,
  "absoluten": 4854,
  "Genfer": 4855,
  "bräu@@": 4856,
  "sar@@": 4857,
  "sth@@": 4858,
  "Ira@@": 4859,
  "lindustrie": 4860,
  "dreißig": 4861,
  "Development": 4862,
  "mittelalter@@": 4863,
  "04@@": 4864,
  "sim@@": 4865,
  "greifenden": 4866,
  "Pflan@@": 4867,
  "2015": 4868,
  "offener": 4869,
  "little": 4870,
  "bean@@": 4871,
  "Donau": 4872,
  "Brief@@": 4873,
  "val": 4874,
  "Metall": 4875,
  "derartiger": 4876,
  "super@@": 4877,
  "gültige": 4878,
  "stellvertre@@": 4879,
  "ärten": 4880,
  "gewohnt": 4881,
  "Wäscheservice": 4882,
  "eingenommen": 4883,
  "Verhältnis@@": 4884,
  "manuell": 4885,
  "Fischler": 4886,
  "Zahl@@": 4887,
  "Beschränkung": 4888,
  "stärker@@": 4889,
  "Full": 4890,
  "ule": 4891,
  "geist": 4892,
  "AKVIS": 4893,
  "Nachweis": 4894,
  "Inc": 4895,
  "reiten": 4896,
  "ietet": 4897,
  "sprit@@": 4898,
  "konfiguriert": 4899,
  "Gemäl@@": 4900,
  "platte": 4901,
  "öne": 4902,
  "Ausgewogenheit": 4903,
  "Kodex": 4904,
  "konzer@@": 4905,
  "aufrechtzuerhalten": 4906,
  "Größen@@": 4907,
  "Flüchtlings@@": 4908,
  "gelad@@": 4909,
  "Soft": 4910,
  "geschnit@@": 4911,
  "var@@": 4912,
  "Forschungs-": 4913,
  "nit@@": 4914,
  "Public": 4915,
  "skrä@@": 4916,
  "ukra@@": 4917,
  "Ander@@": 4918,
  "stuft": 4919,
  "Unfälle": 4920,
  "ordentlich": 4921,
  "kräftig": 4922,
  "ey@@": 4923,
  "gefährlicher": 4924,
  "Stufen": 4925,
  "beginn@@": 4926,
  "ereig@@": 4927,
  "wendi@@": 4928,
  "band@@": 4929,
  "geprä@@": 4930,
  "bring@@": 4931,
  "modernste": 4932,
  "salon": 4933,
  "protesti@@": 4934,
  "unternehmen@@": 4935,
  "weiße": 4936,
  "istik": 4937,
  "Quark": 4938,
  "itze": 4939,
  "haltungs@@": 4940,
  "Mig@@": 4941,
  "red@@": 4942,
  "Herzegowina": 4943,
  "Balance": 4944,
  "airport": 4945,
  "kw": 4946,
  "bodsch@@": 4947,
  "Freilassung": 4948,
  "Stabilitätspakt": 4949,
  "Nahrung": 4950,
  "Überwindung": 4951,
  "BER@@": 4952,
  "unterstützten": 4953,
  "ais": 4954,
  "ving": 4955,
  "andal": 4956,
  "rahmen@@": 4957,
  "feldern": 4958,
  "unnötig": 4959,
  "seid": 4960,
  "Garanti@@": 4961,
  "folg": 4962,
  "Wat@@": 4963,
  "katho@@": 4964,
  "Gläu@@": 4965,
  "nischen": 4966,
  "EIB": 4967,
  "put": 4968,
  "CD@@": 4969,
  "getro@@": 4970,
  "CO": 4971,
  "strahlt": 4972,
  "dal": 4973,
  "Dün@@": 4974,
  "kunft": 4975,
  "Anpass@@": 4976,
  "Erwärmung": 4977,
  "bezir@@": 4978,
  "ware@@": 4979,
  "angeb@@": 4980,
  "Meeres": 4981,
  "renommierten": 4982,
  "aal": 4983,
  "Montenegro": 4984,
  "aloge": 4985,
  "ook": 4986,
  "sk": 4987,
  "aim@@": 4988,
  "befin@@": 4989,
  "yp": 4990,
  "Clu@@": 4991,
  "Jubil@@": 4992,
  "Terrorismus@@": 4993,
  "Friedensprozess": 4994,
  "Seel@@": 4995,
  "Big": 4996,
  "Wörter": 4997,
  "spunkt": 4998,
  "Zeilen": 4999,
  "Netto@@": 5000,
  "begannen": 5001,
  "Stress": 5002,
  "Krankenhaus": 5003,
  "ul": 5004,
  "Biotechnologie": 5005,
  "nov@@": 5006,
  "sensiblen": 5007,
  "Signal@@": 5008,
  "Klausel": 5009,
  "Frühling": 5010,
  "LateRooms.com": 5011,
  "bewusstsein": 5012,
  "nuklear@@": 5013,
  "tze": 5014,
  "juristische": 5015,
  "around": 5016,
  "Folgendes": 5017,
  "Stärken": 5018,
  "hten": 5019,
  "where": 5020,
  "vermark@@": 5021,
  "Allah": 5022,
  "DI": 5023,
  "fing": 5024,
  "Auswirkung": 5025,
  "next": 5026,
  "Sus@@": 5027,
  "Pakets": 5028,
  "Infrastruktur@@": 5029,
  "flich": 5030,
  "griff@@": 5031,
  "Branchen@@": 5032,
  "Instanz": 5033,
  "angem@@": 5034,
  "Palästinen@@": 5035,
  "ziehungs@@": 5036,
  "Ortschaft": 5037,
  "anim@@": 5038,
  "wovon": 5039,
  "Auftritt": 5040,
  "ASP": 5041,
  "gefügt": 5042,
  "angesprochenen": 5043,
  "virtu@@": 5044,
  "renomm@@": 5045,
  "Zuschauer": 5046,
  "denzen": 5047,
  "Santiago": 5048,
  "Rhyth@@": 5049,
  "räte": 5050,
  "Om@@": 5051,
  "Umwelt-": 5052,
  "doppelte": 5053,
  "beliebig": 5054,
  "fotografi@@": 5055,
  "zweier": 5056,
  "Anzahlung": 5057,
  "zweifelsohne": 5058,
  "Lar@@": 5059,
  "transparenter": 5060,
  "wettbewerbsfähig": 5061,
  "ktivitäten": 5062,
  "Marktan@@": 5063,
  "herum@@": 5064,
  "Schuhe": 5065,
  "ausch": 5066,
  "misst": 5067,
  "vertraulich": 5068,
  "Flughafen@@": 5069,
  "unterstützte": 5070,
  "währung": 5071,
  "Spaniens": 5072,
  "pon@@": 5073,
  "EURO@@": 5074,
  "erweist": 5075,
  "halle": 5076,
  "beschädigt": 5077,
  "Dampfbad": 5078,
  "ungspf@@": 5079,
  "Eisenbahn": 5080,
  "schrecklichen": 5081,
  "undes@@": 5082,
  "übersehen": 5083,
  "dokumentiert": 5084,
  "Mär@@": 5085,
  "tien": 5086,
  "sphase": 5087,
  "inhaltlich": 5088,
  "näch@@": 5089,
  "Vormittag": 5090,
  "Kraftstoff@@": 5091,
  "GP": 5092,
  "blickt": 5093,
  "räumt": 5094,
  "stage": 5095,
  "rass@@": 5096,
  "Arten@@": 5097,
  "diesbezü@@": 5098,
  "Medium": 5099,
  "Ministerpräsidenten": 5100,
  "ungarische": 5101,
  "motoren": 5102,
  "Richt@@": 5103,
  "klagt": 5104,
  "Turnier": 5105,
  "angemeldet": 5106,
  "öpfe": 5107,
  "Phan@@": 5108,
  "Vergabe": 5109,
  "Sri": 5110,
  "Millenni@@": 5111,
  "häu@@": 5112,
  "Getränken": 5113,
  "speicher": 5114,
  "Schuh@@": 5115,
  "muster": 5116,
  "Menüs": 5117,
  "justi@@": 5118,
  "hänge": 5119,
  "Residenz": 5120,
  "gebern": 5121,
  "Stornierungen": 5122,
  "Durchbruch": 5123,
  "Dien@@": 5124,
  "zugewiesen": 5125,
  "Komple@@": 5126,
  "Politikern": 5127,
  "konfigurieren": 5128,
  "gon": 5129,
  "Maßstäbe": 5130,
  "Stücke": 5131,
  "Betrieben": 5132,
  "schich@@": 5133,
  "Ausbruch": 5134,
  "Weitergabe": 5135,
  "Konsultationen": 5136,
  "meisterschaft": 5137,
  "Storni@@": 5138,
  "Brot": 5139,
  "Angehörigen": 5140,
  "effizi@@": 5141,
  "schlug": 5142,
  "utes": 5143,
  "unterzeichnen": 5144,
  "Aufteilung": 5145,
  "Glan@@": 5146,
  "Einleitung": 5147,
  "sert": 5148,
  "großartigen": 5149,
  "vorab": 5150,
  "Mön@@": 5151,
  "ließ@@": 5152,
  "gebil@@": 5153,
  "GN@@": 5154,
  "Asyl": 5155,
  "hundert@@": 5156,
  "Erwägungen": 5157,
  "einges@@": 5158,
  "trockner": 5159,
  "kanal": 5160,
  "Prozessen": 5161,
  "Laufenden": 5162,
  "Religi@@": 5163,
  "vertrags": 5164,
  "inspiriert": 5165,
  "Migranten": 5166,
  "cio": 5167,
  "überschreiten": 5168,
  "Auslands@@": 5169,
  "Zuhause": 5170,
  "10.000": 5171,
  "Erlaubnis": 5172,
  "vertik@@": 5173,
  "Up": 5174,
  "Investi@@": 5175,
  "Gescheh@@": 5176,
  "Industriepolitik": 5177,
  "situated": 5178,
  "physikali@@": 5179,
  "territorialen": 5180,
  "lags": 5181,
  "AND": 5182,
  "Fahrzeu@@": 5183,
  "wöchentlich": 5184,
  "sfer": 5185,
  "ärz@@": 5186,
  "ffekt": 5187,
  "Bezirk": 5188,
  "Pass": 5189,
  "anmerken": 5190,
  "afft": 5191,
  "Kohle": 5192,
  "Körpers": 5193,
  "Dimensionen": 5194,
  "Impul@@": 5195,
  "Aufstockung": 5196,
  "fik": 5197,
  "allgemeiner": 5198,
  "text@@": 5199,
  "Erzeugnissen": 5200,
  "stück@@": 5201,
  "Sav@@": 5202,
  "Boote": 5203,
  "ICH@@": 5204,
  "Ras@@": 5205,
  "elektro@@": 5206,
  "siedlung": 5207,
  "ögert": 5208,
  "dum@@": 5209,
  "pa": 5210,
  "Buchungen": 5211,
  "Somm@@": 5212,
  "unabdingbar": 5213,
  "zertifiziert": 5214,
  "NT@@": 5215,
  "skop@@": 5216,
  "strengere": 5217,
  "Klärung": 5218,
  "Spenden": 5219,
  "Embr@@": 5220,
  "Ausnahme@@": 5221,
  "zugeschnitten": 5222,
  "garage": 5223,
  "Unrecht": 5224,
  "ansprech@@": 5225,
  "Vorstands@@": 5226,
  "wem": 5227,
  "Betrü@@": 5228,
  "Pfund": 5229,
  "ale@@": 5230,
  "Daniel": 5231,
  "Ausflug@@": 5232,
  "Intel": 5233,
  "thos": 5234,
  "eld": 5235,
  "Finanzminister": 5236,
  "Rhein": 5237,
  "Garden": 5238,
  "NT": 5239,
  "still": 5240,
  "gelder": 5241,
  "Leucht@@": 5242,
  "nel": 5243,
  "auszubauen": 5244,
  "rede": 5245,
  "Entdeck@@": 5246,
  "geschnitten": 5247,
  "gerte": 5248,
  "Mot@@": 5249,
  "gewaltigen": 5250,
  "unterrichtet": 5251,
  "Spass": 5252,
  "utzen": 5253,
  "elektrische": 5254,
  "asten": 5255,
  "Verhaltens@@": 5256,
  "minute": 5257,
  "Laufzeit": 5258,
  "anzuerkennen": 5259,
  "IBM": 5260,
  "wehr": 5261,
  "Verheugen": 5262,
  "Mitbürger": 5263,
  "ernde": 5264,
  "ali": 5265,
  "reinen": 5266,
  "ommen": 5267,
  "gross@@": 5268,
  "höchstem": 5269,
  "Allgemeine": 5270,
  "musi@@": 5271,
  "stad@@": 5272,
  "freiwillige": 5273,
  "etabliert": 5274,
  ".ch": 5275,
  "verbesserten": 5276,
  "verhaftet": 5277,
  "Auswertung": 5278,
  "jenseits": 5279,
  "instrumente": 5280,
  "Skulp@@": 5281,
  "1987": 5282,
  "Klo@@": 5283,
  "ankommen": 5284,
  "Spekul@@": 5285,
  "Allgemein@@": 5286,
  "herauszufinden": 5287,
  "privilegi@@": 5288,
  "bevorzugt": 5289,
  "visten": 5290,
  "hn": 5291,
  "sprachige": 5292,
  "Mei@@": 5293,
  "angrenz@@": 5294,
  "bibliothe@@": 5295,
  "Golden": 5296,
  "ligten": 5297,
  "IR": 5298,
  "Kampagnen": 5299,
  "künstlerischen": 5300,
  "haber": 5301,
  "s.com": 5302,
  "ALDE": 5303,
  "Berichterstattung": 5304,
  "lev@@": 5305,
  "unzäh@@": 5306,
  "199@@": 5307,
  "anschließ@@": 5308,
  "pfer@@": 5309,
  "NE": 5310,
  "Auslieferung": 5311,
  "Hob@@": 5312,
  "3000": 5313,
  "operieren": 5314,
  "Speed": 5315,
  "Null": 5316,
  "water": 5317,
  "Hoheits@@": 5318,
  "140": 5319,
  "positiver": 5320,
  "ausstellung": 5321,
  "formulieren": 5322,
  "Folgenabsch@@": 5323,
  "überraschend": 5324,
  "verschieden": 5325,
  "facto": 5326,
  "sofor@@": 5327,
  "kers": 5328,
  "Wiederaufnahme": 5329,
  "Tie@@": 5330,
  "Verschlüssel@@": 5331,
  "Shopping": 5332,
  "Jes@@": 5333,
  "bestrebt": 5334,
  "Gesetzgeber": 5335,
  "Detail@@": 5336,
  "nichtsdesto@@": 5337,
  "höch@@": 5338,
  "territori@@": 5339,
  "chens": 5340,
  "Lul@@": 5341,
  "Pixel": 5342,
  "Islam@@": 5343,
  "Blau@@": 5344,
  "Hôtel": 5345,
  "juristischen": 5346,
  "Treffpunkt": 5347,
  "ish@@": 5348,
  "Akademie": 5349,
  "come": 5350,
  "GUE": 5351,
  "affen": 5352,
  "Verhaltenskodex": 5353,
  "ügen": 5354,
  "liebt": 5355,
  "Diagnose": 5356,
  "schritt": 5357,
  "Züge": 5358,
  "Gewässern": 5359,
  "elligkeit": 5360,
  "liederung": 5361,
  "Kun@@": 5362,
  "kompati@@": 5363,
  "diesjährigen": 5364,
  "Maustaste": 5365,
  "Messung": 5366,
  "veränderten": 5367,
  "verste@@": 5368,
  "griffe": 5369,
  "Erziehung": 5370,
  "Müt@@": 5371,
  "phone": 5372,
  "Fachleute": 5373,
  "schüsse": 5374,
  "läufig": 5375,
  "euer@@": 5376,
  "christlichen": 5377,
  "Fotografi@@": 5378,
  "multilater@@": 5379,
  "Consulting": 5380,
  "Cel@@": 5381,
  "Handbuch": 5382,
  "vertrag@@": 5383,
  "Dialog@@": 5384,
  "Regierung@@": 5385,
  "var": 5386,
  "Fischereis@@": 5387,
  "Jon@@": 5388,
  "VIP": 5389,
  "präsent": 5390,
  "ttes": 5391,
  "Balkan@@": 5392,
  "Clau@@": 5393,
  "ouren": 5394,
  "Kö@@": 5395,
  "Militär": 5396,
  "Betra@@": 5397,
  "Ring": 5398,
  "technologien": 5399,
  "SD": 5400,
  "aktiv@@": 5401,
  "Wi": 5402,
  "Ashton": 5403,
  "beauftragt": 5404,
  "mittags": 5405,
  "nacht": 5406,
  "Gemeinschaftsebene": 5407,
  "einziger": 5408,
  "Bron@@": 5409,
  "ventions@@": 5410,
  "erli@@": 5411,
  "symbo@@": 5412,
  "zeh@@": 5413,
  "OSZE": 5414,
  "offer": 5415,
  "park@@": 5416,
  "gänzlich": 5417,
  "elli": 5418,
  "versuchte": 5419,
  "gestän@@": 5420,
  "äden": 5421,
  "ordnungs@@": 5422,
  "Erwachsen@@": 5423,
  "fleisch": 5424,
  "Dorf@@": 5425,
  "wissenschaftlicher": 5426,
  "tigung@@": 5427,
  "Terror": 5428,
  "Sicherstellung": 5429,
  "Austau@@": 5430,
  "zün@@": 5431,
  "Aufstellung": 5432,
  "agenturen": 5433,
  "ftungen": 5434,
  "Pel@@": 5435,
  "erzeugnisse": 5436,
  "Times": 5437,
  "loc@@": 5438,
  "Oase": 5439,
  "abzustimmen": 5440,
  "Gl@@": 5441,
  "betreffende": 5442,
  "aut": 5443,
  "fragte": 5444,
  "Gremien": 5445,
  "DV@@": 5446,
  "stehend": 5447,
  "End": 5448,
  "Dienstleistungsrichtlinie": 5449,
  "empfehlenswert": 5450,
  "fossi@@": 5451,
  "Bit@@": 5452,
  "Befürchtungen": 5453,
  "vermei@@": 5454,
  "SL@@": 5455,
  "Mahlzeiten": 5456,
  "klingen": 5457,
  "norm@@": 5458,
  "dal@@": 5459,
  "gesetze": 5460,
  "Appell": 5461,
  "genutz@@": 5462,
  "Mono@@": 5463,
  "Beibehaltung": 5464,
  "ires": 5465,
  "zern": 5466,
  "Speich@@": 5467,
  "isen@@": 5468,
  "hinreich@@": 5469,
  "Ausschüssen": 5470,
  "zusammenhän@@": 5471,
  "überschritten": 5472,
  "entziehen": 5473,
  "Schwanger@@": 5474,
  "Premi@@": 5475,
  "OECD": 5476,
  "Zauber": 5477,
  "unterricht": 5478,
  "farbe": 5479,
  "verursachten": 5480,
  "Sky@@": 5481,
  "eingetragen": 5482,
  "Edelst@@": 5483,
  "Verbin@@": 5484,
  "Sab@@": 5485,
  "grö@@": 5486,
  "berechtigte": 5487,
  "Instrument@@": 5488,
  "Oper": 5489,
  "ffer@@": 5490,
  "Profil@@": 5491,
  "Franzosen": 5492,
  "Kollektion": 5493,
  "drasti@@": 5494,
  "standardi@@": 5495,
  "Zufall": 5496,
  "spru@@": 5497,
  "King": 5498,
  "getroffenen": 5499,
  "Kongress@@": 5500,
  "Wohlergehen": 5501,
  "Käse": 5502,
  "erklärung": 5503,
  "fehle": 5504,
  "hochrangi@@": 5505,
  "lässig": 5506,
  "Lagerung": 5507,
  "tätigkeit": 5508,
  "zeugt": 5509,
  "Lande": 5510,
  "beurteilt": 5511,
  "schätze": 5512,
  "Nob@@": 5513,
  "ermutigt": 5514,
  "Schriften": 5515,
  "Lav@@": 5516,
  "Garage": 5517,
  "Kontinents": 5518,
  "befürchten": 5519,
  "Erkenntnis": 5520,
  "inner": 5521,
  "begeist@@": 5522,
  "Dateis@@": 5523,
  "Lot@@": 5524,
  "Bilder@@": 5525,
  "bulgar@@": 5526,
  "Lettland": 5527,
  "Etiket@@": 5528,
  "gischen": 5529,
  "Schwimm@@": 5530,
  "professionell": 5531,
  "Samsung": 5532,
  "unvergess@@": 5533,
  "Konvergenz": 5534,
  "mediterranen": 5535,
  "Urlaub@@": 5536,
  "erfolgreicher": 5537,
  "Emo@@": 5538,
  "gesetzgebung": 5539,
  "verkörper@@": 5540,
  "ermög@@": 5541,
  "äne": 5542,
  "Funk@@": 5543,
  "stücken": 5544,
  "Black": 5545,
  "schil@@": 5546,
  "thal@@": 5547,
  "FS": 5548,
  "Stri@@": 5549,
  "illi@@": 5550,
  "iet": 5551,
  "Streit": 5552,
  "finnischen": 5553,
  "tec": 5554,
  "ouse": 5555,
  "Adress@@": 5556,
  "dü@@": 5557,
  "ug@@": 5558,
  "umfassender": 5559,
  "polis": 5560,
  "einschlägigen": 5561,
  "beeindruckt": 5562,
  "hinausgehen": 5563,
  "Konzeption": 5564,
  "verlor@@": 5565,
  "zweck": 5566,
  "langjährigen": 5567,
  "Singapur": 5568,
  "nachkommen": 5569,
  "zusätz@@": 5570,
  "ankommt": 5571,
  "schnellstmöglich": 5572,
  "Geburtstag": 5573,
  "ehrgeizigen": 5574,
  "ull": 5575,
  "koennen": 5576,
  "entscheidungen": 5577,
  "Welle": 5578,
  "Van@@": 5579,
  "loggen": 5580,
  "schär@@": 5581,
  "willigen": 5582,
  "Navigation": 5583,
  "graben": 5584,
  "Info@@": 5585,
  "Instand@@": 5586,
  "Liebhaber": 5587,
  "alog": 5588,
  "beha@@": 5589,
  "Zinssätze": 5590,
  "Streben": 5591,
  "reichlich": 5592,
  "promenade": 5593,
  "angezogen": 5594,
  "gespeich@@": 5595,
  "haltens": 5596,
  "pfe": 5597,
  "Multi": 5598,
  "findest": 5599,
  "Bonn": 5600,
  "Kreis@@": 5601,
  "exklusiv": 5602,
  "rieben": 5603,
  "aufrecht": 5604,
  "fleisch@@": 5605,
  "spannende": 5606,
  "Berechti@@": 5607,
  "nachtei@@": 5608,
  "atom@@": 5609,
  "Pfeiler": 5610,
  "spflicht": 5611,
  "Nigeria": 5612,
  "Diskussions@@": 5613,
  "Leistungs": 5614,
  "distan@@": 5615,
  "acher": 5616,
  "assen@@": 5617,
  "weitergehen": 5618,
  "Pestizi@@": 5619,
  "Sender": 5620,
  "lebte": 5621,
  "seitigkeit": 5622,
  "asien": 5623,
  "höher@@": 5624,
  "Stück@@": 5625,
  "förderungs@@": 5626,
  "Gesichtspunkt": 5627,
  "ham@@": 5628,
  "streng@@": 5629,
  "tschech@@": 5630,
  "Olympus": 5631,
  "Bürgerrechte": 5632,
  "Kolumbien": 5633,
  "Jugendherberge": 5634,
  "ull@@": 5635,
  "Monte@@": 5636,
  "Dom": 5637,
  "veranlassen": 5638,
  "shop": 5639,
  "Hygi@@": 5640,
  "lagen@@": 5641,
  "Grundstück": 5642,
  "Genehmig@@": 5643,
  "Elektron@@": 5644,
  "Sequ@@": 5645,
  "DIN": 5646,
  "1945": 5647,
  "Toskana": 5648,
  "oberhalb": 5649,
  "Klassen@@": 5650,
  "Charakter@@": 5651,
  "Belastungen": 5652,
  "weites": 5653,
  "Vide@@": 5654,
  "Vieh@@": 5655,
  "geschäfte": 5656,
  "verteidigt": 5657,
  "weiß@@": 5658,
  "verweigert": 5659,
  "Reservierungen": 5660,
  "Wunsch@@": 5661,
  "gelte": 5662,
  "Logos": 5663,
  "gewahrt": 5664,
  "Persönlichkeit": 5665,
  "ethnische": 5666,
  "onte": 5667,
  "Periode": 5668,
  "osteuropäischen": 5669,
  "Telefonnummer": 5670,
  "offenkundig": 5671,
  "GF@@": 5672,
  "Patente": 5673,
  "Chr@@": 5674,
  "sitzes": 5675,
  "entierte": 5676,
  "auszuführen": 5677,
  "fis@@": 5678,
  "Kuli@@": 5679,
  "o.@@": 5680,
  "Verstöße": 5681,
  "Hunde": 5682,
  "Erläu@@": 5683,
  "Experten@@": 5684,
  "ción": 5685,
  "richtete": 5686,
  "worum": 5687,
  "lokal": 5688,
  "eröffnete": 5689,
  "BS": 5690,
  "Kran@@": 5691,
  "seinerzeit": 5692,
  "jun@@": 5693,
  "mässig": 5694,
  "Č@@": 5695,
  "IX": 5696,
  "gezielte": 5697,
  "ares": 5698,
  "Gründer": 5699,
  "schri@@": 5700,
  "übersetzen": 5701,
  "Offizi@@": 5702,
  "Haiti": 5703,
  "flüsse": 5704,
  "schlafen": 5705,
  "techni@@": 5706,
  "umgewandelt": 5707,
  "gründet": 5708,
  "Metrop@@": 5709,
  "comm@@": 5710,
  "Malware": 5711,
  "Magazin": 5712,
  "vorherseh@@": 5713,
  "ahl@@": 5714,
  "Send@@": 5715,
  "Venti@@": 5716,
  "wiederherzustellen": 5717,
  "mail@@": 5718,
  "faden": 5719,
  "Demo": 5720,
  "einräumen": 5721,
  "geehrter": 5722,
  "available": 5723,
  "Bestes": 5724,
  "Größen": 5725,
  "Preises": 5726,
  "Place": 5727,
  "Breit@@": 5728,
  "beruf@@": 5729,
  "abteilung": 5730,
  "Finanz-": 5731,
  "Rücken": 5732,
  "beeindruck@@": 5733,
  "gebauten": 5734,
  "moralische": 5735,
  "Sicherheits-": 5736,
  "Minimum": 5737,
  "trinken": 5738,
  "ambi@@": 5739,
  "geschützten": 5740,
  "österreichische": 5741,
  "zusammengestellt": 5742,
  "vergan@@": 5743,
  "Juden": 5744,
  "hard": 5745,
  "spunkte": 5746,
  "ray": 5747,
  "walt": 5748,
  "setzten": 5749,
  "reihe": 5750,
  "ausgeliefert": 5751,
  "holung": 5752,
  "Demokratien": 5753,
  "Plug": 5754,
  "rische": 5755,
  "Lesen": 5756,
  "HU": 5757,
  "Mich@@": 5758,
  "verstärkten": 5759,
  "beides": 5760,
  "shaushalt": 5761,
  "träglich": 5762,
  "Schlacht@@": 5763,
  "bedürfen": 5764,
  "Pilot@@": 5765,
  "hem@@": 5766,
  "nachzudenken": 5767,
  "heruntergeladen": 5768,
  "gleichzei@@": 5769,
  "Kunststoff@@": 5770,
  "geschä@@": 5771,
  "unglaublich": 5772,
  "ventionen": 5773,
  "sachen": 5774,
  "kennung": 5775,
  "Weis@@": 5776,
  "verbreiten": 5777,
  "berg@@": 5778,
  "Strategi@@": 5779,
  "Milch": 5780,
  "SW@@": 5781,
  "Zugangs": 5782,
  "Hir@@": 5783,
  "defizit": 5784,
  "Gefäng@@": 5785,
  "Spra@@": 5786,
  "LA": 5787,
  "anscheinend": 5788,
  "spon@@": 5789,
  "krank@@": 5790,
  "verschär@@": 5791,
  "Gleichbehandlung": 5792,
  "Space": 5793,
  "Suites": 5794,
  "Sound@@": 5795,
  "architekton@@": 5796,
  "anzugehen": 5797,
  "gesetzlich": 5798,
  "damer": 5799,
  "ć": 5800,
  "Schiffen": 5801,
  "Wahrnehmung": 5802,
  "Kanäle": 5803,
  "beachtet": 5804,
  "kunfts@@": 5805,
  "Nachbarschaft": 5806,
  "into": 5807,
  "Progno@@": 5808,
  "strationen": 5809,
  "bezogenen": 5810,
  "dichte": 5811,
  "ml": 5812,
  "aten@@": 5813,
  "lux@@": 5814,
  "Nä@@": 5815,
  "zurückkommen": 5816,
  "Rh@@": 5817,
  "Haltestelle": 5818,
  "dei": 5819,
  "unzureich@@": 5820,
  "Mitentscheidungs@@": 5821,
  "problematisch": 5822,
  "entde@@": 5823,
  "Terminal": 5824,
  "Network": 5825,
  "Buchstaben": 5826,
  "porte": 5827,
  "Att@@": 5828,
  "Set": 5829,
  "Kirk": 5830,
  "ny": 5831,
  "ausgedrückt": 5832,
  "verbindliche": 5833,
  "beobachtet": 5834,
  "trop@@": 5835,
  "wertvollen": 5836,
  "School": 5837,
  "enthal@@": 5838,
  "niedrige": 5839,
  "sts": 5840,
  "Literatur": 5841,
  "Kali@@": 5842,
  "zonen": 5843,
  "Sun@@": 5844,
  "wachen": 5845,
  "reiches": 5846,
  "qui": 5847,
  "mut": 5848,
  "Petitions@@": 5849,
  "what": 5850,
  "gefertigt": 5851,
  "attraktiven": 5852,
  "sames": 5853,
  "Zeitungen": 5854,
  "Zentren": 5855,
  "grundlage": 5856,
  "Indonesien": 5857,
  "Sevilla": 5858,
  "tnis": 5859,
  "Visi@@": 5860,
  "vi": 5861,
  "nachhal@@": 5862,
  "Sou@@": 5863,
  "beleb@@": 5864,
  "mangelnde": 5865,
  "umen@@": 5866,
  "Kandi@@": 5867,
  "zon@@": 5868,
  "läge": 5869,
  "flotte": 5870,
  "fortschrit@@": 5871,
  "GA": 5872,
  "beherbergt": 5873,
  "Richtigkeit": 5874,
  "Diplom@@": 5875,
  "Operationen": 5876,
  "heb@@": 5877,
  "NO@@": 5878,
  "abzulehnen": 5879,
  "Muse@@": 5880,
  "Familienz@@": 5881,
  "koordinieren": 5882,
  "Roll@@": 5883,
  "schon@@": 5884,
  "ruf@@": 5885,
  "irre@@": 5886,
  "parking": 5887,
  "Konta@@": 5888,
  "Avi@@": 5889,
  "vorausgesetzt": 5890,
  "Az@@": 5891,
  "Parlamenten": 5892,
  "Profession@@": 5893,
  "EVP": 5894,
  "etten@@": 5895,
  "a.@@": 5896,
  "Sat": 5897,
  "pt@@": 5898,
  "mark": 5899,
  "¶": 5900,
  "kreative": 5901,
  "kunft@@": 5902,
  "Mittel-": 5903,
  "Düsseldorf": 5904,
  "Wör@@": 5905,
  "English": 5906,
  "France": 5907,
  "tatsächliche": 5908,
  "Nokia": 5909,
  "Logistik": 5910,
  "Anleitung": 5911,
  "Ursprungs@@": 5912,
  "Redezeit": 5913,
  "perman@@": 5914,
  "Mitwirkung": 5915,
  "Karl": 5916,
  "Nachteil": 5917,
  "Fahrzeugen": 5918,
  "Abend@@": 5919,
  "beantragt": 5920,
  "ky": 5921,
  "Resultat": 5922,
  "explo@@": 5923,
  "Doha": 5924,
  "Geschlechter": 5925,
  "76": 5926,
  "erstklassige": 5927,
  "Antrieb@@": 5928,
  "span@@": 5929,
  "Maßstab": 5930,
  "gements": 5931,
  "eventuelle": 5932,
  "Euror@@": 5933,
  "tl@@": 5934,
  "Zucker": 5935,
  "nahen": 5936,
  "BE@@": 5937,
  "hinzuweisen": 5938,
  "Publik@@": 5939,
  "nische": 5940,
  "reiben": 5941,
  "vereinbaren": 5942,
  "elem@@": 5943,
  "Obst": 5944,
  "oms": 5945,
  "Schaf@@": 5946,
  "Übertrag@@": 5947,
  "behei@@": 5948,
  "Ank@@": 5949,
  "global": 5950,
  "acht@@": 5951,
  "schaftlich": 5952,
  "gend@@": 5953,
  "direkter": 5954,
  "taten": 5955,
  "starb": 5956,
  "Gepäck": 5957,
  "lab@@": 5958,
  "verschi@@": 5959,
  "onisten": 5960,
  "assungs@@": 5961,
  "medizin@@": 5962,
  "Höhen@@": 5963,
  "org@@": 5964,
  "grei@@": 5965,
  "Tabellen": 5966,
  "pflegen": 5967,
  "Ausstellungs@@": 5968,
  "Flughaf@@": 5969,
  "Technology": 5970,
  "180": 5971,
  "Quartal": 5972,
  "zufriedenstell@@": 5973,
  "Schri@@": 5974,
  "Finanziellen": 5975,
  "arme": 5976,
  "heimische": 5977,
  "Therapie": 5978,
  "Ord@@": 5979,
  "Kn@@": 5980,
  "Beschaff@@": 5981,
  "veröffentlichte": 5982,
  "Anpassungen": 5983,
  "Gefangenen": 5984,
  "buffet": 5985,
  "Fahrrad": 5986,
  "Interview": 5987,
  "männ@@": 5988,
  "Erwachsenen": 5989,
  "Lizenzen": 5990,
  "Hunderte": 5991,
  "indirekt": 5992,
  "Konsumenten": 5993,
  "differen@@": 5994,
  "URL": 5995,
  "Unterricht": 5996,
  "SL": 5997,
  "Formate": 5998,
  "shand@@": 5999,
  "Frühstücks@@": 6000,
  "ital@@": 6001,
  "komfort@@": 6002,
  "Konflikten": 6003,
  "PR@@": 6004,
  "abschließen": 6005,
  "ländischen": 6006,
  "male": 6007,
  "kümmert": 6008,
  "ín": 6009,
  "Hongkong": 6010,
  "begriffen": 6011,
  "fortzusetzen": 6012,
  "bedient": 6013,
  "ansässi@@": 6014,
  "beeinträchtigen": 6015,
  "TO": 6016,
  "Angeboten": 6017,
  "städtischen": 6018,
  "Richard": 6019,
  "u.@@": 6020,
  "Sensibili@@": 6021,
  "kommunistischen": 6022,
  "vorbereit@@": 6023,
  "Ern@@": 6024,
  "ory": 6025,
  "Nom@@": 6026,
  "länen": 6027,
  "ures": 6028,
  "beunruhi@@": 6029,
  "läufi@@": 6030,
  "schäden": 6031,
  "ausgewogen": 6032,
  "ftung": 6033,
  "Umstrukturierung": 6034,
  "Ama@@": 6035,
  "billigen": 6036,
  "Ganzen": 6037,
  "anderswo": 6038,
  "Erweiterungen": 6039,
  "einrichtung": 6040,
  "besagt": 6041,
  "gründe": 6042,
  "Panoram@@": 6043,
  "ho": 6044,
  "But@@": 6045,
  "willkür@@": 6046,
  "Strecken": 6047,
  "rahmens": 6048,
  "institution@@": 6049,
  "ausgeübt": 6050,
  "Wanderungen": 6051,
  "eras": 6052,
  "Quadrat@@": 6053,
  "Extra@@": 6054,
  "Fair@@": 6055,
  "erwarte": 6056,
  "perfekten": 6057,
  "Drucker": 6058,
  "web": 6059,
  "sozusagen": 6060,
  "Geltungs@@": 6061,
  "mediterran@@": 6062,
  "isierten": 6063,
  "abri@@": 6064,
  "roten": 6065,
  "artigen": 6066,
  "Bä@@": 6067,
  "lok@@": 6068,
  "Än@@": 6069,
  "zir@@": 6070,
  "ee@@": 6071,
  "iPod": 6072,
  "Wissenschaft@@": 6073,
  "services": 6074,
  "fa": 6075,
  "Vorsicht": 6076,
  "tali@@": 6077,
  "Downloads": 6078,
  "ination": 6079,
  "13.@@": 6080,
  "Vorbehalte": 6081,
  "mitglied": 6082,
  "Meister": 6083,
  "ermittelt": 6084,
  "zumal": 6085,
  "lands@@": 6086,
  "grenzt": 6087,
  "kommunizieren": 6088,
  "turm": 6089,
  "Nutzern": 6090,
  "Statut": 6091,
  "mäßig@@": 6092,
  "Publikationen": 6093,
  "sele@@": 6094,
  "hre": 6095,
  "Spam": 6096,
  "strom": 6097,
  "gebucht": 6098,
  "100@@": 6099,
  "Kloster": 6100,
  "koh@@": 6101,
  "einfaches": 6102,
  "Anzeigen": 6103,
  "erkennbar": 6104,
  "unternehmer@@": 6105,
  "Mittagessen": 6106,
  "spartnern": 6107,
  "Komplexität": 6108,
  "Besteller": 6109,
  "Zäh@@": 6110,
  "strateg@@": 6111,
  "diversen": 6112,
  "soren": 6113,
  "Zeh@@": 6114,
  "jk": 6115,
  "Kernenergie": 6116,
  "merken": 6117,
  "erbe": 6118,
  "Spon@@": 6119,
  "touristischen": 6120,
  "Kurs@@": 6121,
  "Sammel@@": 6122,
  "dringen": 6123,
  "asp@@": 6124,
  "Aufsicht": 6125,
  "Privi@@": 6126,
  "Kredite": 6127,
  "Bren@@": 6128,
  "bün@@": 6129,
  "festhalten": 6130,
  "zunehmen@@": 6131,
  "tiefen": 6132,
  "spolitiken": 6133,
  "A5": 6134,
  "Haushalt@@": 6135,
  "schlä@@": 6136,
  "angeführt": 6137,
  "wertet": 6138,
  "Gesamtheit": 6139,
  "Moldau": 6140,
  "SU@@": 6141,
  "Job": 6142,
  "druckt": 6143,
  "prote@@": 6144,
  "Orientierung": 6145,
  "außergewöhnlichen": 6146,
  "Max": 6147,
  "ALE": 6148,
  "Fristen": 6149,
  "gemachten": 6150,
  "isst": 6151,
  "pension": 6152,
  "Erfin@@": 6153,
  "big@@": 6154,
  "allgem@@": 6155,
  "Jahreszeit": 6156,
  "speisen": 6157,
  "zügen": 6158,
  ".net": 6159,
  "unum@@": 6160,
  "Annäherung": 6161,
  "Rechtssicherheit": 6162,
  "auswahl": 6163,
  "Frankreichs": 6164,
  "Bele@@": 6165,
  "Netzwerke": 6166,
  "kommission": 6167,
  "Wirt@@": 6168,
  "lern@@": 6169,
  "Brun@@": 6170,
  "ärm@@": 6171,
  "befreien": 6172,
  "wunderbaren": 6173,
  "rell": 6174,
  "Anreiz": 6175,
  "Asi@@": 6176,
  "preisen": 6177,
  "dorthin": 6178,
  "Glaub@@": 6179,
  "78": 6180,
  "Gültigkeit": 6181,
  "Ress@@": 6182,
  "geachtet": 6183,
  "bildungen": 6184,
  "Š@@": 6185,
  "Zoll": 6186,
  "Ort@@": 6187,
  "Gefan@@": 6188,
  "gran@@": 6189,
  "cal": 6190,
  "indire@@": 6191,
  "Entwick@@": 6192,
  "Bad@@": 6193,
  "Lobby@@": 6194,
  "modelle": 6195,
  "geni@@": 6196,
  "tschechischen": 6197,
  "ý": 6198,
  "Einbindung": 6199,
  "Vorwand": 6200,
  "vernachlässi@@": 6201,
  "Säule": 6202,
  "Radio@@": 6203,
  "Befürwor@@": 6204,
  "Cast@@": 6205,
  "luft@@": 6206,
  "leute": 6207,
  "zeile": 6208,
  "schwung": 6209,
  "krie@@": 6210,
  "ries@@": 6211,
  "gelag@@": 6212,
  "veröffentlichten": 6213,
  "warm": 6214,
  "prochen": 6215,
  "Hum@@": 6216,
  "dementsprechend": 6217,
  "horizon@@": 6218,
  "Aktu@@": 6219,
  "Eisen@@": 6220,
  "Tunesien": 6221,
  "entiert": 6222,
  "Vorstand": 6223,
  "bewundern": 6224,
  "ernden": 6225,
  "Verbindungs@@": 6226,
  "even": 6227,
  "anspruchsvolle": 6228,
  "Bür@@": 6229,
  "fähiger": 6230,
  "unglück@@": 6231,
  "Siemens": 6232,
  "Navig@@": 6233,
  "lief": 6234,
  "zwangsläufig": 6235,
  "energie": 6236,
  "Ky@@": 6237,
  "5.000": 6238,
  "betreuung": 6239,
  "Mauer": 6240,
  "stam@@": 6241,
  "Sili@@": 6242,
  "Mili@@": 6243,
  "aspe@@": 6244,
  "gemütlich": 6245,
  "ome@@": 6246,
  "laufend": 6247,
  "Etage": 6248,
  "Stockholm": 6249,
  "Vermeidung": 6250,
  "portugiesischen": 6251,
  "61": 6252,
  "allmählich": 6253,
  "Geschichten": 6254,
  "ergänz@@": 6255,
  "vin@@": 6256,
  "pap@@": 6257,
  "beschä@@": 6258,
  "Portu@@": 6259,
  "Umgeb@@": 6260,
  "höchst@@": 6261,
  "Beton@@": 6262,
  "familie": 6263,
  "Ratspräsidenten": 6264,
  "Libyen": 6265,
  "Konzern": 6266,
  "abgestimm@@": 6267,
  "ear@@": 6268,
  "Anzeichen": 6269,
  "sun@@": 6270,
  "Firefox": 6271,
  "Vertriebs@@": 6272,
  "Ärzte": 6273,
  "energ@@": 6274,
  "Forst@@": 6275,
  "DC": 6276,
  "lob@@": 6277,
  "Heim@@": 6278,
  "m.": 6279,
  "hilfen": 6280,
  "ät@@": 6281,
  "enswer@@": 6282,
  "genheit": 6283,
  "Ambi@@": 6284,
  "verwirklicht": 6285,
  "Kompromisse": 6286,
  "verteilen": 6287,
  "zögern": 6288,
  "NE@@": 6289,
  "Fehlen": 6290,
  "Räumen": 6291,
  "Rats@@": 6292,
  "vertei@@": 6293,
  "exzellente": 6294,
  "blicke": 6295,
  "Hintergrund@@": 6296,
  "erzi@@": 6297,
  "sn@@": 6298,
  "unkt": 6299,
  "erschien": 6300,
  "englische": 6301,
  "gelegentlich": 6302,
  "Shops": 6303,
  "schir@@": 6304,
  "Repräsent@@": 6305,
  "Wurzeln": 6306,
  "News@@": 6307,
  "arab@@": 6308,
  "Leh@@": 6309,
  "Versuch@@": 6310,
  "enor@@": 6311,
  "schle@@": 6312,
  "Män@@": 6313,
  "stungs@@": 6314,
  "Festi@@": 6315,
  "main": 6316,
  "Aufgaben@@": 6317,
  "Black@@": 6318,
  "Up@@": 6319,
  "engagieren": 6320,
  "stie@@": 6321,
  "begrenz@@": 6322,
  "Aufpreis": 6323,
  "gegebenen": 6324,
  "soll@@": 6325,
  "Betrach@@": 6326,
  "zeitraum": 6327,
  "ax": 6328,
  "Kaiser": 6329,
  "rägern": 6330,
  "Listen": 6331,
  "Legitimität": 6332,
  "Gesetzes": 6333,
  "UC@@": 6334,
  "Etagen": 6335,
  "höhe": 6336,
  "Nachbarschaftspolitik": 6337,
  "CC": 6338,
  "really": 6339,
  "Italien@@": 6340,
  "fikationen": 6341,
  "systematisch": 6342,
  "Gewe@@": 6343,
  "ströme": 6344,
  "based": 6345,
  "Standpunkte": 6346,
  "geschäf@@": 6347,
  "Albanien": 6348,
  "Rap@@": 6349,
  "Kluft": 6350,
  "Geschen@@": 6351,
  "Dörfer": 6352,
  "inspiri@@": 6353,
  "ausgewogene": 6354,
  "ausgenommen": 6355,
  "Kameras": 6356,
  "ě@@": 6357,
  "ms@@": 6358,
  "Ruh@@": 6359,
  "Zeile": 6360,
  "use@@": 6361,
  "erfahrenen": 6362,
  "Krä@@": 6363,
  "Bir@@": 6364,
  "Nahrungsmittel": 6365,
  "Reichtum": 6366,
  "Erreichen": 6367,
  "Physi@@": 6368,
  "Interface": 6369,
  "stattung": 6370,
  "Kosme@@": 6371,
  "änderungs@@": 6372,
  "Einladung": 6373,
  "verlei@@": 6374,
  "vil@@": 6375,
  "kanz@@": 6376,
  "auftritt": 6377,
  "Sitzungsperiode": 6378,
  "Zielsetzung": 6379,
  "beantragen": 6380,
  "Satelliten": 6381,
  "Geo@@": 6382,
  "Zellen": 6383,
  "ong@@": 6384,
  "Dum@@": 6385,
  "Informations-": 6386,
  "Architek@@": 6387,
  "gebenden": 6388,
  "schwarz": 6389,
  "verhandlungen": 6390,
  "Nikon": 6391,
  "ölle": 6392,
  "ahr@@": 6393,
  "Defizite": 6394,
  "AF@@": 6395,
  "deutlicher": 6396,
  "wurfs": 6397,
  "thaf@@": 6398,
  "pel@@": 6399,
  "GVO": 6400,
  "abgehalten": 6401,
  "Assist@@": 6402,
  "strecke": 6403,
  "lem": 6404,
  "EX": 6405,
  "verbieten": 6406,
  "eigen": 6407,
  "abkommens": 6408,
  "viertens": 6409,
  "ktiert": 6410,
  "Industriel@@": 6411,
  "ferenzen": 6412,
  "Ausnahmere@@": 6413,
  "Breakfast": 6414,
  "Ale@@": 6415,
  "alien": 6416,
  "dynamische": 6417,
  "Festung": 6418,
  "bark@@": 6419,
  "optimiert": 6420,
  "Broschür@@": 6421,
  "Glob@@": 6422,
  "ständiges": 6423,
  "durchgesetzt": 6424,
  "Spanisch": 6425,
  "Games": 6426,
  "Arena": 6427,
  "länge": 6428,
  "überflüssi@@": 6429,
  "geliefer@@": 6430,
  "GPS": 6431,
  "Stabilitäts-": 6432,
  "winkel": 6433,
  "69": 6434,
  "bevor@@": 6435,
  "Ausgleich": 6436,
  "EA": 6437,
  "Etik@@": 6438,
  "OR": 6439,
  "lossen": 6440,
  "Schwier@@": 6441,
  "optionen": 6442,
  "Ernennung": 6443,
  "führend": 6444,
  "unzählige": 6445,
  "internet": 6446,
  "vorhaben": 6447,
  "AIDS": 6448,
  "Indikatoren": 6449,
  "Ansätze": 6450,
  "Ball@@": 6451,
  "gesu@@": 6452,
  "gesetzliche": 6453,
  "gene@@": 6454,
  "91": 6455,
  "gericht": 6456,
  "Nutzungs@@": 6457,
  "té": 6458,
  "stün@@": 6459,
  "bathroom": 6460,
  "Sierra": 6461,
  "griechische": 6462,
  "Früchte": 6463,
  "gebnisse": 6464,
  "beratung": 6465,
  "gratuliere": 6466,
  "andt": 6467,
  "spreis": 6468,
  "Rahmens": 6469,
  "Songs": 6470,
  "inen@@": 6471,
  "schreiten": 6472,
  "anden": 6473,
  "Kari@@": 6474,
  "Himm@@": 6475,
  "Music": 6476,
  "wahrnehmen": 6477,
  "acken": 6478,
  "Num@@": 6479,
  "Dop@@": 6480,
  "Cle@@": 6481,
  "seg@@": 6482,
  "350": 6483,
  "bearbeitung": 6484,
  "beglückwünsche": 6485,
  "Brutto@@": 6486,
  "Et@@": 6487,
  "schieben": 6488,
  "Alexander": 6489,
  "smo@@": 6490,
  "volumen": 6491,
  "Schienen@@": 6492,
  "Dafürhalten": 6493,
  "anstreben": 6494,
  "ernannt": 6495,
  "vorbereiten": 6496,
  "bemerken": 6497,
  "Train@@": 6498,
  "olen": 6499,
  "Spir@@": 6500,
  "qm": 6501,
  "beweist": 6502,
  "schicht": 6503,
  "Datent@@": 6504,
  "Impulse": 6505,
  "Lust": 6506,
  "maßgeb@@": 6507,
  "ßer@@": 6508,
  "Trainings@@": 6509,
  "Repar@@": 6510,
  "qualit@@": 6511,
  "geschätz@@": 6512,
  "Verbrauch": 6513,
  "ual": 6514,
  "Single": 6515,
  "anzen": 6516,
  "wende": 6517,
  "Rab@@": 6518,
  "Wich@@": 6519,
  "Standorten": 6520,
  "89": 6521,
  "ausbildung": 6522,
  "geholt": 6523,
  "Gebrau@@": 6524,
  "Redebeit@@": 6525,
  "who": 6526,
  "geschlossene": 6527,
  "preises": 6528,
  "bestätigung": 6529,
  "club": 6530,
  "islamischen": 6531,
  "echter": 6532,
  "Schlu@@": 6533,
  "koordiniert": 6534,
  "meint": 6535,
  "mobilen": 6536,
  "Krieg@@": 6537,
  "eta": 6538,
  "ßte": 6539,
  "beeindruckende": 6540,
  "ausgerüstet": 6541,
  "geltend": 6542,
  "uten": 6543,
  "LU@@": 6544,
  "Bour@@": 6545,
  "62": 6546,
  "Auftraggeber": 6547,
  "überdies": 6548,
  "markiert": 6549,
  "2,5": 6550,
  "94": 6551,
  "vernünftigen": 6552,
  "BA": 6553,
  "Künstlern": 6554,
  "Arbeitskräfte": 6555,
  "Gaza": 6556,
  "erfassen": 6557,
  "Behinderungen": 6558,
  "Passagiere": 6559,
  "gegrün@@": 6560,
  "Kit@@": 6561,
  "kostenfreien": 6562,
  "bekam": 6563,
  "anwendungen": 6564,
  "amb@@": 6565,
  "Eingabe": 6566,
  "Treib@@": 6567,
  "erholen": 6568,
  "deb@@": 6569,
  "Maus": 6570,
  "Moder@@": 6571,
  "gerichteten": 6572,
  "müsse": 6573,
  "antiken": 6574,
  "made": 6575,
  "religiöse": 6576,
  "LT": 6577,
  "oberfläche": 6578,
  "stehe": 6579,
  "Tastat@@": 6580,
  "hôtel": 6581,
  "Hotelzimmer": 6582,
  "irgendwann": 6583,
  "gin@@": 6584,
  "iker": 6585,
  "veaus": 6586,
  "überra@@": 6587,
  "Heiz@@": 6588,
  "fundament@@": 6589,
  "Herstellern": 6590,
  "Zutaten": 6591,
  "Warcraft": 6592,
  "itt": 6593,
  "Reb@@": 6594,
  "unkte": 6595,
  "sien": 6596,
  "Augenmerk": 6597,
  "fahrzeugen": 6598,
  "Lieblings@@": 6599,
  "Dam@@": 6600,
  "Basel": 6601,
  "intelligente": 6602,
  "Cho@@": 6603,
  "fehler": 6604,
  "Baden": 6605,
  "heil@@": 6606,
  "Griff": 6607,
  "Binnenmarkts": 6608,
  "Freizeit": 6609,
  "Durchschnitt": 6610,
  "befür@@": 6611,
  "Schnei@@": 6612,
  "Kontin@@": 6613,
  "xis@@": 6614,
  "ensystem": 6615,
  "Il@@": 6616,
  "chtige": 6617,
  "tiv": 6618,
  "Trennung": 6619,
  "finanzieller": 6620,
  "identifizieren": 6621,
  "Bestand@@": 6622,
  "Vermarktung": 6623,
  "Wettbewer@@": 6624,
  "bemerkt": 6625,
  "cul@@": 6626,
  "angehören": 6627,
  "Residence": 6628,
  "revolution@@": 6629,
  "geschütz@@": 6630,
  "äler": 6631,
  "arien": 6632,
  "ßes": 6633,
  "Inn@@": 6634,
  "packt": 6635,
  "einbringen": 6636,
  "sex@@": 6637,
  "teter": 6638,
  "PK@@": 6639,
  "harten": 6640,
  "Airlines": 6641,
  "willst": 6642,
  "Schalt@@": 6643,
  "rot": 6644,
  "stieg@@": 6645,
  "agements": 6646,
  "Informationsgesellschaft": 6647,
  "Stol@@": 6648,
  "sition": 6649,
  "entwickel@@": 6650,
  "rent": 6651,
  "Quo@@": 6652,
  "feier@@": 6653,
  "60@@": 6654,
  "herausra@@": 6655,
  "baute": 6656,
  "fließen": 6657,
  "Sto@@": 6658,
  "Lit@@": 6659,
  "Argum@@": 6660,
  "Vorsitzende": 6661,
  "Beobach@@": 6662,
  "Engineering": 6663,
  "äußerster": 6664,
  "Paradies": 6665,
  "Heu@@": 6666,
  "Hilfen": 6667,
  "gehörigkeit": 6668,
  "betreut": 6669,
  "dynamischen": 6670,
  "Ero@@": 6671,
  "sage@@": 6672,
  "amerikanischer": 6673,
  "kri@@": 6674,
  "späten": 6675,
  "Adri@@": 6676,
  "modernsten": 6677,
  "Kleidung": 6678,
  "eingetra@@": 6679,
  "oria": 6680,
  "Schottland": 6681,
  "Quer@@": 6682,
  "ttä@@": 6683,
  "Lis@@": 6684,
  "verlu@@": 6685,
  "Gan@@": 6686,
  "Spy@@": 6687,
  "mittelalterlichen": 6688,
  "expliz@@": 6689,
  "einigt": 6690,
  "gefangen": 6691,
  "Hyper@@": 6692,
  "Häusern": 6693,
  "Chaos": 6694,
  "entation": 6695,
  "sand@@": 6696,
  "offers": 6697,
  "abhängen": 6698,
  "Tauchen": 6699,
  "Schätzungen": 6700,
  "Erdbeben": 6701,
  "steigende": 6702,
  "Durchführungs@@": 6703,
  "Verkehrsmitteln": 6704,
  "Micro@@": 6705,
  "loss": 6706,
  "Edinburgh": 6707,
  "Direk@@": 6708,
  "rez": 6709,
  "Verpackungs@@": 6710,
  "Applikation": 6711,
  "ausreichen": 6712,
  "belastet": 6713,
  "Grafik@@": 6714,
  "Sports": 6715,
  "Grupp@@": 6716,
  "üblicherweise": 6717,
  "Nachfolger": 6718,
  "erhebt": 6719,
  "rest@@": 6720,
  "Alkohol@@": 6721,
  "CON@@": 6722,
  "Kindes": 6723,
  "Wachstum@@": 6724,
  "halts@@": 6725,
  "radio@@": 6726,
  "Nichtregierungsorganisationen": 6727,
  "vergleichbar": 6728,
  "zuvor@@": 6729,
  "deckung": 6730,
  "Lev@@": 6731,
  "Koloni@@": 6732,
  "unmittelbare": 6733,
  "Nächte": 6734,
  "Werkzeug@@": 6735,
  "begrenzen": 6736,
  "adresse": 6737,
  "Ökonom@@": 6738,
  "Gleichheit": 6739,
  "Direktor": 6740,
  "Tut@@": 6741,
  "bewahr@@": 6742,
  "1988": 6743,
  "allen@@": 6744,
  "Wand": 6745,
  "ehl": 6746,
  "kenne": 6747,
  "möge": 6748,
  "etwa@@": 6749,
  "Völkern": 6750,
  "Klassen": 6751,
  "wiederhole": 6752,
  "anschauen": 6753,
  "gos": 6754,
  "Kriti@@": 6755,
  "Forscher": 6756,
  "umfangreiches": 6757,
  "Monte": 6758,
  "gewaltige": 6759,
  "til": 6760,
  "nisch": 6761,
  "Lat@@": 6762,
  "bewegungen": 6763,
  "Leist@@": 6764,
  "Teu@@": 6765,
  "brin@@": 6766,
  "scheinbar": 6767,
  "Anreis@@": 6768,
  "berau@@": 6769,
  "restaurants": 6770,
  "tigten": 6771,
  "Schal@@": 6772,
  "oberste": 6773,
  "87": 6774,
  "irgendeine": 6775,
  "Designs": 6776,
  "themen": 6777,
  "Gedäch@@": 6778,
  "Abweich@@": 6779,
  "Warnung": 6780,
  "Freie": 6781,
  "own": 6782,
  "GR@@": 6783,
  "nett": 6784,
  "roler": 6785,
  "faktoren": 6786,
  "ungsphase": 6787,
  "Nachteile": 6788,
  "wirksamer": 6789,
  "staats@@": 6790,
  "ated": 6791,
  "westen": 6792,
  "älteste": 6793,
  "CAD": 6794,
  "zivilen": 6795,
  "Beträge": 6796,
  "ë@@": 6797,
  "Masse": 6798,
  "Trek": 6799,
  "Hannover": 6800,
  "fahrt@@": 6801,
  "Journ@@": 6802,
  "klick": 6803,
  "Devisen@@": 6804,
  "alisti@@": 6805,
  "ning": 6806,
  "administrati@@": 6807,
  "Gewer@@": 6808,
  "bör@@": 6809,
  "130": 6810,
  "Randlage": 6811,
  "Fotografie": 6812,
  "Sozialpolitik": 6813,
  "geschenkt": 6814,
  "nachfolgenden": 6815,
  "Mitgliedsstaaten": 6816,
  "Akzeptanz": 6817,
  "beheben": 6818,
  "Rem@@": 6819,
  "ji": 6820,
  "klarstellen": 6821,
  "dek@@": 6822,
  "berge": 6823,
  "forum": 6824,
  "ög@@": 6825,
  "freiwillig": 6826,
  "then": 6827,
  "definitiv": 6828,
  "gescho@@": 6829,
  "eria": 6830,
  "Horiz@@": 6831,
  "Edel@@": 6832,
  "rah@@": 6833,
  "versorgt": 6834,
  "Ok@@": 6835,
  "übertrag@@": 6836,
  "profitiert": 6837,
  "Inneres": 6838,
  "dali@@": 6839,
  "portal": 6840,
  "massive": 6841,
  "d.@@": 6842,
  "möchtest": 6843,
  "Gesundheitswesen": 6844,
  "Erfassung": 6845,
  "Monats": 6846,
  "Variablen": 6847,
  "Anlage@@": 6848,
  "Behandlungen": 6849,
  "diszipl@@": 6850,
  "Anwendungsbereich": 6851,
  "konkre@@": 6852,
  "gängi@@": 6853,
  "Minder@@": 6854,
  "field": 6855,
  "schwach": 6856,
  "muslim@@": 6857,
  "over@@": 6858,
  "Sandstrand": 6859,
  "ain": 6860,
  "t.@@": 6861,
  "Klang@@": 6862,
  "Intel@@": 6863,
  "Entdeckung": 6864,
  "mittelfris@@": 6865,
  "flexiblen": 6866,
  "Dolomiten": 6867,
  "pflanzen": 6868,
  "Motoren": 6869,
  "aufweist": 6870,
  "tech": 6871,
  "Aussehen": 6872,
  "Zei@@": 6873,
  "vez": 6874,
  "element@@": 6875,
  "ersuchen": 6876,
  "trags": 6877,
  "Slideshows": 6878,
  "tari@@": 6879,
  "Auskunft": 6880,
  "Saddam": 6881,
  "bewäl@@": 6882,
  "Valencia": 6883,
  "Rollen": 6884,
  "itten": 6885,
  "ilit@@": 6886,
  "Stro@@": 6887,
  "ausmachen": 6888,
  "Gebäudes": 6889,
  "rums": 6890,
  "erhöhte": 6891,
  "klassi@@": 6892,
  "phase": 6893,
  "Autonomie": 6894,
  "fotogra@@": 6895,
  "ston": 6896,
  "Symbole": 6897,
  "soviel": 6898,
  "Peri@@": 6899,
  "übertragung": 6900,
  "Höhepunkt": 6901,
  "ession@@": 6902,
  "komplizierte": 6903,
  "Vietnam": 6904,
  "Fülle": 6905,
  "brut@@": 6906,
  "angel@@": 6907,
  "Ganze": 6908,
  "schriftlichen": 6909,
  "Stern": 6910,
  "magne@@": 6911,
  "Hung@@": 6912,
  "Konfigurations@@": 6913,
  "ept": 6914,
  "verläuft": 6915,
  "komponenten": 6916,
  "digkeit": 6917,
  "ń@@": 6918,
  "Gä@@": 6919,
  "lim@@": 6920,
  "Michel": 6921,
  "Aufnahme@@": 6922,
  "großzügig": 6923,
  "carte": 6924,
  "Epo@@": 6925,
  "entdeckte": 6926,
  "toren": 6927,
  "definierten": 6928,
  "amtierenden": 6929,
  "häufigsten": 6930,
  "Afrikas": 6931,
  "Elite": 6932,
  "annt": 6933,
  "genz": 6934,
  "Potential": 6935,
  "Bedürf@@": 6936,
  "para@@": 6937,
  "abzielt": 6938,
  "betragen": 6939,
  "erInnen": 6940,
  "LED": 6941,
  "lung@@": 6942,
  "Wit@@": 6943,
  "polnische": 6944,
  "Fäl@@": 6945,
  "DIE": 6946,
  "Bundesrepublik": 6947,
  "Schre@@": 6948,
  "gängen": 6949,
  "vorzuschlagen": 6950,
  "side": 6951,
  "ér@@": 6952,
  "Konver@@": 6953,
  "Wagen": 6954,
  "Dienststellen": 6955,
  "Korea": 6956,
  "Captain": 6957,
  "Tanz@@": 6958,
  "unüber@@": 6959,
  "telefon@@": 6960,
  "Rohstoff@@": 6961,
  "Prüfungen": 6962,
  "versprechen": 6963,
  "Minderheiten@@": 6964,
  "einbeziehen": 6965,
  "OLAF": 6966,
  "quoten": 6967,
  "verordnung": 6968,
  "außer@@": 6969,
  "möglicher": 6970,
  "ungsum@@": 6971,
  "treu": 6972,
  "portugi@@": 6973,
  "kapital": 6974,
  "such": 6975,
  "dringlich": 6976,
  "christ@@": 6977,
  "Anmel@@": 6978,
  "Simul@@": 6979,
  "behinderten@@": 6980,
  "Willkommen": 6981,
  "pragmati@@": 6982,
  "erfreu@@": 6983,
  "spektrum": 6984,
  "Gute": 6985,
  "diente": 6986,
  "beam@@": 6987,
  "traf": 6988,
  "schlicht": 6989,
  "Intelli@@": 6990,
  "dachten": 6991,
  "beloh@@": 6992,
  "Kanz@@": 6993,
  "versichert": 6994,
  "unent@@": 6995,
  "versorgen": 6996,
  "angekommen": 6997,
  "existi@@": 6998,
  "stabil": 6999,
  "strukturel@@": 7000,
  "Streitkräfte": 7001,
  "fizierte": 7002,
  "alist": 7003,
  "exo@@": 7004,
  "verbo@@": 7005,
  "setzungen": 7006,
  "Skript": 7007,
  "Christian": 7008,
  "nien": 7009,
  "Gesetz@@": 7010,
  "abon@@": 7011,
  "sky": 7012,
  "schwäch@@": 7013,
  "Begleitung": 7014,
  "Besetzung": 7015,
  "ous@@": 7016,
  "zugang": 7017,
  "Flair": 7018,
  "nahe@@": 7019,
  "Interess@@": 7020,
  "Gil@@": 7021,
  "fassten": 7022,
  "eingebettet": 7023,
  "Handhabung": 7024,
  "Ce@@": 7025,
  "oli": 7026,
  "gulierung": 7027,
  "Temperatur@@": 7028,
  "bedaure": 7029,
  "einzuleiten": 7030,
  "europaweit": 7031,
  "Milli@@": 7032,
  "prozessen": 7033,
  "sichten": 7034,
  "Gaz@@": 7035,
  "Vertei@@": 7036,
  "sämtlicher": 7037,
  "Übermittlung": 7038,
  "weiterentwickelt": 7039,
  "Behandlungs@@": 7040,
  "schrei@@": 7041,
  "üsse": 7042,
  "Aufklärung": 7043,
  "Mineral@@": 7044,
  "Krimin@@": 7045,
  "dahingehend": 7046,
  "Haut@@": 7047,
  "positionen": 7048,
  "dit": 7049,
  "Müller": 7050,
  "themati@@": 7051,
  "fic@@": 7052,
  "sson": 7053,
  "vollsten": 7054,
  "griffs@@": 7055,
  "gehand@@": 7056,
  "Birma": 7057,
  "verweist": 7058,
  "Ära": 7059,
  "Artikels": 7060,
  "Kriterium": 7061,
  "Tier": 7062,
  "zügi@@": 7063,
  "lio": 7064,
  "vos": 7065,
  "Inanspruchnahme": 7066,
  "Ziels": 7067,
  "skraft": 7068,
  "persönliches": 7069,
  "Kongres@@": 7070,
  "SDL": 7071,
  "bestanden": 7072,
  "Spannung": 7073,
  "Felsen": 7074,
  "Gesprä@@": 7075,
  "Ay@@": 7076,
  "Professional": 7077,
  "ht@@": 7078,
  "ganzheit@@": 7079,
  "Fundament": 7080,
  "Erdgeschoss": 7081,
  "Hall": 7082,
  "Generalsekretär": 7083,
  "Modellen": 7084,
  "Alliance": 7085,
  "tung@@": 7086,
  "Plattformen": 7087,
  "Chinesen": 7088,
  "74": 7089,
  "virtuelle": 7090,
  "kontra@@": 7091,
  "Pharma@@": 7092,
  "Cur@@": 7093,
  "ausgeben": 7094,
  "riffe": 7095,
  "damaligen": 7096,
  "schlimmsten": 7097,
  "schlag@@": 7098,
  "Persönlichkeiten": 7099,
  "zweites": 7100,
  "widmet": 7101,
  "Verzeichn@@": 7102,
  "Turm": 7103,
  "Jazz": 7104,
  "abschluss": 7105,
  "vernich@@": 7106,
  "entfernten": 7107,
  "ture": 7108,
  "beautiful": 7109,
  "unkten": 7110,
  "Aktiv@@": 7111,
  "bilität": 7112,
  "Kamin": 7113,
  "nich@@": 7114,
  "Phasen": 7115,
  "ritte": 7116,
  "verwendete": 7117,
  "gefahren": 7118,
  "Tarifa": 7119,
  "teilnehmenden": 7120,
  "kos": 7121,
  "Reisenden": 7122,
  "lieferungen": 7123,
  "Tap@@": 7124,
  "Chemikalien": 7125,
  "Technologie@@": 7126,
  "geschle@@": 7127,
  "Reiseb@@": 7128,
  "LCD": 7129,
  "suchten": 7130,
  "erho@@": 7131,
  "IA@@": 7132,
  "banken": 7133,
  "front": 7134,
  "Room": 7135,
  "Seh@@": 7136,
  "Sternen@@": 7137,
  "Vollständigkeit": 7138,
  "heimischen": 7139,
  "Schließung": 7140,
  "Chin@@": 7141,
  "Eck@@": 7142,
  "bom@@": 7143,
  "zin": 7144,
  "Bestrebungen": 7145,
  "sh": 7146,
  "erhielten": 7147,
  "historisch": 7148,
  "Upgrade": 7149,
  "zierter": 7150,
  "Theater@@": 7151,
  "Begleit@@": 7152,
  "Typen": 7153,
  "Auflagen": 7154,
  "problemen": 7155,
  "Tepp@@": 7156,
  "price": 7157,
  "ards": 7158,
  "gan": 7159,
  "FA@@": 7160,
  "westliche": 7161,
  "tradi@@": 7162,
  "abgeschafft": 7163,
  "Norwegen": 7164,
  "robu@@": 7165,
  "Kompromiss@@": 7166,
  "Dist@@": 7167,
  "SC": 7168,
  "atte": 7169,
  "vorzubereiten": 7170,
  "hütung": 7171,
  "schulden": 7172,
  "Schnee": 7173,
  "artikel": 7174,
  "schien": 7175,
  "Erneuerung": 7176,
  "gg@@": 7177,
  "er-": 7178,
  "Zusammenfassung": 7179,
  "systemati@@": 7180,
  "lichere": 7181,
  "Musiker": 7182,
  "Gedanke": 7183,
  "Zins@@": 7184,
  "tic": 7185,
  "aufgeführten": 7186,
  "eo": 7187,
  "world": 7188,
  "Ori@@": 7189,
  "Folge@@": 7190,
  "Vorgang": 7191,
  "Bewegungs@@": 7192,
  "stechnologien": 7193,
  "dauerhaften": 7194,
  "Geschäftsreisende": 7195,
  "sozial": 7196,
  "idyl@@": 7197,
  "will@@": 7198,
  "Visum@@": 7199,
  "blockiert": 7200,
  "quiet": 7201,
  "gter": 7202,
  "Geschäftsführer": 7203,
  "lichung": 7204,
  "bekämpft": 7205,
  "Time": 7206,
  "bigen": 7207,
  "wache": 7208,
  "echt": 7209,
  "reck@@": 7210,
  "verträge": 7211,
  "Prof.": 7212,
  "Wikicars": 7213,
  "bereitgestellten": 7214,
  "Jahrhunderte": 7215,
  "Erwerb": 7216,
  "Viren": 7217,
  "sweise": 7218,
  "Therap@@": 7219,
  "elf": 7220,
  "Cab@@": 7221,
  "Gesetzen": 7222,
  "nächstes": 7223,
  "Dutz@@": 7224,
  "Entschädigung": 7225,
  "dürften": 7226,
  "Flächen": 7227,
  "dum": 7228,
  "Mark": 7229,
  "verlust": 7230,
  "Bed": 7231,
  "ão": 7232,
  "Jahrzehnt": 7233,
  "Set@@": 7234,
  "Univers@@": 7235,
  "demnächst": 7236,
  "einsetzt": 7237,
  "erischen": 7238,
  "stufe": 7239,
  "sha@@": 7240,
  "Glücks@@": 7241,
  "Laden": 7242,
  "zenten": 7243,
  "Telekommunikations@@": 7244,
  "Line": 7245,
  "bestraft": 7246,
  "Co.": 7247,
  "versprochen": 7248,
  "SMS": 7249,
  "lichten": 7250,
  "westlich": 7251,
  "Nuklear@@": 7252,
  "Patri@@": 7253,
  "Seminare": 7254,
  "itzen": 7255,
  "tika": 7256,
  "vorschlägt": 7257,
  "Stellungnahmen": 7258,
  "tour": 7259,
  "ologen": 7260,
  "dustrie": 7261,
  "Gy@@": 7262,
  "gster": 7263,
  "total": 7264,
  "Reden": 7265,
  "Säu@@": 7266,
  "Sprit@@": 7267,
  "did": 7268,
  "Tagungen": 7269,
  "einstellungen": 7270,
  "Phili@@": 7271,
  "latein@@": 7272,
  "behindert": 7273,
  "Aufrechterhaltung": 7274,
  "zauber@@": 7275,
  "cl@@": 7276,
  "ppen@@": 7277,
  "eur": 7278,
  "Spiels": 7279,
  "81": 7280,
  "stuhl": 7281,
  "Blä@@": 7282,
  "ggf.": 7283,
  "sende": 7284,
  "Lauf": 7285,
  "Charles": 7286,
  "ausgebil@@": 7287,
  "Schritten": 7288,
  "hang": 7289,
  "finan@@": 7290,
  "kus": 7291,
  "near": 7292,
  "mietung": 7293,
  "people": 7294,
  "ops": 7295,
  "geordneten": 7296,
  "Vulkan@@": 7297,
  "Inst@@": 7298,
  "ost@@": 7299,
  "untergebracht": 7300,
  "Dire@@": 7301,
  "modern@@": 7302,
  "On": 7303,
  "cel@@": 7304,
  "ktem": 7305,
  "partner@@": 7306,
  "signifikan@@": 7307,
  "Register": 7308,
  "comp@@": 7309,
  "ao": 7310,
  "virtuellen": 7311,
  "01.@@": 7312,
  "Begeisterung": 7313,
  "reib@@": 7314,
  "energie@@": 7315,
  "Diktatur": 7316,
  "maßgeblich": 7317,
  "business": 7318,
  "uli@@": 7319,
  "One": 7320,
  "Kä@@": 7321,
  "gesenkt": 7322,
  "Schluß": 7323,
  "Tschetschenien": 7324,
  "ku": 7325,
  "Artikeln": 7326,
  "stabilen": 7327,
  "Veget@@": 7328,
  "Datens@@": 7329,
  "Provin@@": 7330,
  "mein@@": 7331,
  "erreichten": 7332,
  "Hoffnungen": 7333,
  "aufhören": 7334,
  "stable": 7335,
  "steine": 7336,
  "ras@@": 7337,
  "Beitrittsverhandlungen": 7338,
  "open": 7339,
  "Bab@@": 7340,
  "odi@@": 7341,
  "arte": 7342,
  "fur": 7343,
  "Finanzi@@": 7344,
  "ammern": 7345,
  "einrichten": 7346,
  "berechtigung": 7347,
  "ueber": 7348,
  "Vergü@@": 7349,
  "Recy@@": 7350,
  "Exek@@": 7351,
  "begleit@@": 7352,
  "schmer@@": 7353,
  "erschüt@@": 7354,
  "regelungen": 7355,
  "Deck@@": 7356,
  "audiovisu@@": 7357,
  "Schwerpunkte": 7358,
  "Räumlichkeiten": 7359,
  "rang": 7360,
  "unvermei@@": 7361,
  "Helsinki": 7362,
  "Beförderung": 7363,
  "ziehung": 7364,
  "Entwicklungspolitik": 7365,
  "Grundfreiheiten": 7366,
  "fizierten": 7367,
  "legend@@": 7368,
  "Schwach@@": 7369,
  "verlängert": 7370,
  "Für": 7371,
  "zusammenzu@@": 7372,
  "andau@@": 7373,
  "73": 7374,
  "Vin@@": 7375,
  "öhnung": 7376,
  "Währungen": 7377,
  "Hunger": 7378,
  "auber@@": 7379,
  "Paket@@": 7380,
  "PP@@": 7381,
  "grundlegend": 7382,
  "geneh@@": 7383,
  "Beleu@@": 7384,
  "Einfluß": 7385,
  "dicht": 7386,
  "getr@@": 7387,
  "Vor": 7388,
  "Treibhausgas@@": 7389,
  "auswärtige": 7390,
  "stungen": 7391,
  "lingen": 7392,
  "down": 7393,
  "Beispiel@@": 7394,
  "Gegebenheiten": 7395,
  "Toleranz": 7396,
  "bahnhof": 7397,
  "Erkrankungen": 7398,
  "aku@@": 7399,
  "Zwischenzeit": 7400,
  "elung": 7401,
  "Bün@@": 7402,
  "wählt": 7403,
  "eland": 7404,
  "Meilen": 7405,
  "Cafés": 7406,
  "fak@@": 7407,
  "Bruder": 7408,
  "verschärft": 7409,
  "inierten": 7410,
  "Dresden": 7411,
  "Solidaritäts@@": 7412,
  "durchschnittliche": 7413,
  "Zigare@@": 7414,
  "bare@@": 7415,
  "Ansprüchen": 7416,
  "Spiegel": 7417,
  "Institute": 7418,
  "Mitglie@@": 7419,
  "fläch@@": 7420,
  "DR": 7421,
  "belie@@": 7422,
  "Acht": 7423,
  "Joseph": 7424,
  "ager": 7425,
  "wachst@@": 7426,
  "brachten": 7427,
  "römischen": 7428,
  "demzufolge": 7429,
  "Landwirten": 7430,
  "serklärung": 7431,
  "erzählen": 7432,
  "wurf": 7433,
  "Mountain@@": 7434,
  "aufrufen": 7435,
  "Schulungen": 7436,
  "Audi@@": 7437,
  "cat@@": 7438,
  "ampen": 7439,
  "größ@@": 7440,
  "right": 7441,
  "abschließ@@": 7442,
  "his": 7443,
  "exakt": 7444,
  "list": 7445,
  "gie@@": 7446,
  "korrigiert": 7447,
  "shi@@": 7448,
  "Strafgerich@@": 7449,
  "Zuliefer@@": 7450,
  "VI@@": 7451,
  "Labor@@": 7452,
  "ati": 7453,
  "beliebige": 7454,
  "Jac@@": 7455,
  "ular@@": 7456,
  "Côte": 7457,
  "beach": 7458,
  "jemanden": 7459,
  "kamp@@": 7460,
  "Gegenden": 7461,
  "Turni@@": 7462,
  "Dienstes": 7463,
  "Olympischen": 7464,
  "Demokratisierung": 7465,
  "festgehalten": 7466,
  "ört": 7467,
  "entschuldigen": 7468,
  "Salz@@": 7469,
  "ermor@@": 7470,
  "sers": 7471,
  "Editor": 7472,
  "günstiger": 7473,
  "Ameri@@": 7474,
  "transatlantischen": 7475,
  "alternativen": 7476,
  "italien@@": 7477,
  "SK": 7478,
  "schaftliche": 7479,
  "access": 7480,
  "tro": 7481,
  "Business@@": 7482,
  "ney": 7483,
  "Bandbreite": 7484,
  "Gor@@": 7485,
  "amtierende": 7486,
  "etzen": 7487,
  "Aluminium": 7488,
  "gestrichen": 7489,
  "besteh@@": 7490,
  "chester": 7491,
  "erzielte": 7492,
  "Bat@@": 7493,
  "Stil@@": 7494,
  "anony@@": 7495,
  "ör": 7496,
  "anzusehen": 7497,
  "geschul@@": 7498,
  "Jer@@": 7499,
  "teres": 7500,
  "stetig": 7501,
  "abe@@": 7502,
  "110": 7503,
  "Leipzig": 7504,
  "nos": 7505,
  "Not": 7506,
  "wöch@@": 7507,
  "lieferung": 7508,
  "eis@@": 7509,
  "Tä@@": 7510,
  "Trock@@": 7511,
  "Wandern": 7512,
  "Zinsen": 7513,
  "Unternehmer@@": 7514,
  "wandeln": 7515,
  "Störungen": 7516,
  "Sicherheitsrat": 7517,
  "Spann@@": 7518,
  "zel": 7519,
  "Geburt": 7520,
  "amente": 7521,
  "fünfzehn": 7522,
  "Kris@@": 7523,
  "Palma": 7524,
  "raff@@": 7525,
  "gewöhnliche": 7526,
  "senen": 7527,
  "stellbar": 7528,
  "ruhe": 7529,
  "Serien@@": 7530,
  "trü@@": 7531,
  "Arbeitslosen@@": 7532,
  "Zertifizierung": 7533,
  "án@@": 7534,
  "illegal": 7535,
  "diesbezüglichen": 7536,
  "gesich@@": 7537,
  "stattfin@@": 7538,
  "biologische": 7539,
  "Saf@@": 7540,
  "Holiday": 7541,
  "rumän@@": 7542,
  "ellen@@": 7543,
  "Pfad": 7544,
  "Genauigkeit": 7545,
  "Naturkatastrophen": 7546,
  "Enth@@": 7547,
  "Peking": 7548,
  "ador": 7549,
  "modus": 7550,
  "intensiven": 7551,
  "Norm": 7552,
  "Kup@@": 7553,
  "ständigkeit": 7554,
  "Reserve": 7555,
  "Zusammenbruch": 7556,
  "Territorium": 7557,
  "verzeichnis": 7558,
  "kapit@@": 7559,
  "genheiten": 7560,
  "erzählt": 7561,
  "acc@@": 7562,
  "EE@@": 7563,
  "schaut": 7564,
  "folgerung": 7565,
  "fehl": 7566,
  "fut@@": 7567,
  "entnehmen": 7568,
  "Chat": 7569,
  "veranstaltet": 7570,
  "unterstrichen": 7571,
  "HO@@": 7572,
  "BI@@": 7573,
  "stim@@": 7574,
  "vereinbarung": 7575,
  "friedi@@": 7576,
  "Gru@@": 7577,
  "gemeinschaftliche": 7578,
  "DS": 7579,
  "irgendwie": 7580,
  "ę@@": 7581,
  "hebung": 7582,
  "Breite": 7583,
  "jor@@": 7584,
  "ION": 7585,
  "halben": 7586,
  "SM@@": 7587,
  "Selb@@": 7588,
  "Fassa@@": 7589,
  "künften": 7590,
  "tigungs@@": 7591,
  "Fertigungs@@": 7592,
  "ail": 7593,
  "Hindernis": 7594,
  "findung": 7595,
  "isse@@": 7596,
  "Dest@@": 7597,
  "rungen": 7598,
  "Jan": 7599,
  "lichte": 7600,
  "legislativen": 7601,
  "Wellnessbereich": 7602,
  "hervorzuheben": 7603,
  "Verantwortungs@@": 7604,
  "wirst": 7605,
  "Redu@@": 7606,
  "adet": 7607,
  "Tren@@": 7608,
  "langes": 7609,
  "beihilfen": 7610,
  "besetz@@": 7611,
  "abzuschließen": 7612,
  "defiz@@": 7613,
  "teu@@": 7614,
  "air@@": 7615,
  "FC": 7616,
  "Zentrums": 7617,
  "Fan": 7618,
  "beginn": 7619,
  "Ven@@": 7620,
  "HIV": 7621,
  "Partei@@": 7622,
  "Zivilisation": 7623,
  "Sicht@@": 7624,
  "ausgeprä@@": 7625,
  "Bay@@": 7626,
  "vollkomm@@": 7627,
  "Cy@@": 7628,
  "boot": 7629,
  "Keram@@": 7630,
  "Welthandelsorganisation": 7631,
  "Ratifizierung": 7632,
  "hinaus@@": 7633,
  "verursachen": 7634,
  "tliche": 7635,
  "Vielzahl": 7636,
  "Wei@@": 7637,
  "ligen": 7638,
  "Bürger@@": 7639,
  "Ausgaben": 7640,
  "were": 7641,
  "Analyse": 7642,
  "rufen": 7643,
  "Chi@@": 7644,
  "Betrieb": 7645,
  "Fonds": 7646,
  "schafts@@": 7647,
  "gem": 7648,
  "verlassen": 7649,
  "je@@": 7650,
  "geleistet": 7651,
  ">": 7652,
  "hervor@@": 7653,
  "positiv": 7654,
  "unterstütze": 7655,
  "wa@@": 7656,
  "niemand": 7657,
  "rat": 7658,
  "hren": 7659,
  "Dokument": 7660,
  "Beitritt": 7661,
  "feld": 7662,
  "ßt": 7663,
  "sonst": 7664,
  "Das": 7665,
  "Liefer@@": 7666,
  "offensichtlich": 7667,
  "geschehen": 7668,
  "dlichen": 7669,
  "pe@@": 7670,
  "elles": 7671,
  "Kommunikation": 7672,
  "Zweifel": 7673,
  "our": 7674,
  "AT@@": 7675,
  "beschlossen": 7676,
  "IS@@": 7677,
  "sm@@": 7678,
  "Ak@@": 7679,
  "Österreich": 7680,
  "gestalten": 7681,
  "12@@": 7682,
  "fte": 7683,
  "ris@@": 7684,
  "14@@": 7685,
  "dient": 7686,
  "Nacht": 7687,
  "Name": 7688,
  "zugleich": 7689,
  "zeichen": 7690,
  "San@@": 7691,
  "Vertrags": 7692,
  "diskutieren": 7693,
  "cker": 7694,
  "zer": 7695,
  "Gebieten": 7696,
  "ack@@": 7697,
  "Mitgliedstaat": 7698,
  "pa@@": 7699,
  "erhält": 7700,
  "geöffnet": 7701,
  "staff": 7702,
  "Aspekt": 7703,
  "Einigung": 7704,
  "Ger@@": 7705,
  "Polen": 7706,
  "Best@@": 7707,
  "sichern": 7708,
  "großes": 7709,
  "mitteln": 7710,
  "Durch@@": 7711,
  "gruppen": 7712,
  "sion": 7713,
  "Entwicklungen": 7714,
  "groß": 7715,
  "Unterkunft": 7716,
  "Zweck": 7717,
  "damals": 7718,
  "35": 7719,
  "politischer": 7720,
  "mü@@": 7721,
  "unbe@@": 7722,
  "weiterer": 7723,
  "zufrieden": 7724,
  "ph@@": 7725,
  "mes": 7726,
  "haft": 7727,
  "programme": 7728,
  "Villa": 7729,
  "Te@@": 7730,
  "abkommen": 7731,
  "satz": 7732,
  "digen": 7733,
  "inen": 7734,
  "AL@@": 7735,
  "geschützt": 7736,
  "erklären": 7737,
  "genen": 7738,
  "Bedürfnisse": 7739,
  "Zeitraum": 7740,
  "Business": 7741,
  "dank": 7742,
  "Hei@@": 7743,
  "soweit": 7744,
  "cher@@": 7745,
  "spiel@@": 7746,
  "stellte": 7747,
  "mittels": 7748,
  "angesprochen": 7749,
  "gkeit": 7750,
  "Rede": 7751,
  "betrachtet": 7752,
  "tätig": 7753,
  "stei@@": 7754,
  "Tätigkeit": 7755,
  "anischen": 7756,
  "pi@@": 7757,
  "Bus@@": 7758,
  "einfache": 7759,
  "lu@@": 7760,
  "Zeiten": 7761,
  "Verwaltungs@@": 7762,
  "starke": 7763,
  "London": 7764,
  "Wel@@": 7765,
  "ologie": 7766,
  "anti@@": 7767,
  "ed": 7768,
  "absolut": 7769,
  "gew@@": 7770,
  "Beschreibung": 7771,
  "Arbeiten": 7772,
  "empfehlen": 7773,
  "Ti@@": 7774,
  "andererseits": 7775,
  "daraus": 7776,
  "Hauses": 7777,
  "vorgesehen": 7778,
  "reicht": 7779,
  "Mal@@": 7780,
  "gs@@": 7781,
  "Mi@@": 7782,
  "geschrieben": 7783,
  "See": 7784,
  "schöne": 7785,
  "lig": 7786,
  "bedingungen": 7787,
  "br@@": 7788,
  "con@@": 7789,
  "Mio.": 7790,
  "rü@@": 7791,
  "schi@@": 7792,
  "il": 7793,
  "va": 7794,
  "Auto": 7795,
  "erende": 7796,
  "Abgeordnete": 7797,
  "konkrete": 7798,
  "ft@@": 7799,
  "Mitte": 7800,
  "losen": 7801,
  "trag@@": 7802,
  "überall": 7803,
  "persönlich": 7804,
  "Kan@@": 7805,
  "komplett": 7806,
  "wenigen": 7807,
  "erscheint": 7808,
  "konzentrieren": 7809,
  "ys": 7810,
  "betonen": 7811,
  "Antrag": 7812,
  "lungs@@": 7813,
  "For@@": 7814,
  "zimmer": 7815,
  "Barcelona": 7816,
  "Hersteller": 7817,
  "führenden": 7818,
  "kostenlos": 7819,
  "ite": 7820,
  "garantiert": 7821,
  "lokalen": 7822,
  "umfasst": 7823,
  "stu@@": 7824,
  "Gr@@": 7825,
  "Worte": 7826,
  "weis@@": 7827,
  "Programms": 7828,
  "Israel": 7829,
  "22": 7830,
  "Regel": 7831,
  "that": 7832,
  "geln": 7833,
  "Ni@@": 7834,
  "fu@@": 7835,
  "wahr@@": 7836,
  "gruppe": 7837,
  "positive": 7838,
  "chs": 7839,
  "tro@@": 7840,
  "entstehen": 7841,
  "Abend": 7842,
  "dlich": 7843,
  "systems": 7844,
  "Forderung": 7845,
  "sta@@": 7846,
  "Ur@@": 7847,
  "Regelung": 7848,
  "plat@@": 7849,
  "entdecken": 7850,
  "gewährleistet": 7851,
  "acht": 7852,
  "haus": 7853,
  "anlagen": 7854,
  "tt@@": 7855,
  "san@@": 7856,
  "Herstellung": 7857,
  "sor@@": 7858,
  "läuft": 7859,
  "jene": 7860,
  "durchaus": 7861,
  "Terrasse": 7862,
  "finanzielle": 7863,
  "Initiativen": 7864,
  "spezielle": 7865,
  "Dienste": 7866,
  "schwierig": 7867,
  "ai@@": 7868,
  "gefordert": 7869,
  "achten": 7870,
  "ord@@": 7871,
  "heiten": 7872,
  "ano": 7873,
  "tigung": 7874,
  "ls": 7875,
  "guter": 7876,
  "Club": 7877,
  "Menschenrechts@@": 7878,
  "fol@@": 7879,
  "Ka@@": 7880,
  "Homepage": 7881,
  "Einkaufs@@": 7882,
  "$": 7883,
  "räume": 7884,
  "Bei@@": 7885,
  "fälle": 7886,
  "Tradition": 7887,
  "garantieren": 7888,
  "demokratische": 7889,
  "Gas@@": 7890,
  "bestätigt": 7891,
  "vorliegenden": 7892,
  "gezogen": 7893,
  "Regelungen": 7894,
  "hingewiesen": 7895,
  "istischen": 7896,
  "Aussicht": 7897,
  "amen": 7898,
  "fun@@": 7899,
  "persönliche": 7900,
  "Iran": 7901,
  "regionalen": 7902,
  "werk@@": 7903,
  "feststellen": 7904,
  "Tre@@": 7905,
  "sel": 7906,
  "länger": 7907,
  "Elemente": 7908,
  "punkt": 7909,
  "leistungs@@": 7910,
  "Gel@@": 7911,
  "tiges": 7912,
  "Apartments": 7913,
  "bin@@": 7914,
  "finde": 7915,
  "Erklärungen": 7916,
  "istische": 7917,
  "ideale": 7918,
  "Stellungnahme": 7919,
  "Werk@@": 7920,
  "Brüssel": 7921,
  "Klima@@": 7922,
  "anten": 7923,
  "ordnung": 7924,
  "Richtlinien": 7925,
  "Film": 7926,
  "bung": 7927,
  "laut": 7928,
  "gestern": 7929,
  "Japan": 7930,
  "up": 7931,
  "Mat@@": 7932,
  "bt": 7933,
  "mögliche": 7934,
  "eten": 7935,
  "reisen": 7936,
  "gelöst": 7937,
  "End@@": 7938,
  "na": 7939,
  "gem@@": 7940,
  "van": 7941,
  "sam": 7942,
  "tritt": 7943,
  "Lei@@": 7944,
  "res@@": 7945,
  "schön": 7946,
  "haf@@": 7947,
  "International": 7948,
  "Titel": 7949,
  "bequem": 7950,
  "bezeichnet": 7951,
  "schlagen": 7952,
  "inzwischen": 7953,
  "Prinzip": 7954,
  "län@@": 7955,
  "speziellen": 7956,
  "Innovation": 7957,
  "sto@@": 7958,
  "aren": 7959,
  "dungen": 7960,
  "AS@@": 7961,
  "Reise": 7962,
  "nte": 7963,
  "übrigen": 7964,
  "por@@": 7965,
  "Ukraine": 7966,
  "In": 7967,
  "Agrar@@": 7968,
  "Q@@": 7969,
  "mittel@@": 7970,
  "Win@@": 7971,
  "Plan@@": 7972,
  "gegenwärtigen": 7973,
  "lat@@": 7974,
  "betrachten": 7975,
  "Süd@@": 7976,
  "23": 7977,
  "but": 7978,
  "fühlen": 7979,
  "Fortschritt": 7980,
  "tim@@": 7981,
  "steigen": 7982,
  "Nord@@": 7983,
  "Überwachung": 7984,
  "vier@@": 7985,
  "internationaler": 7986,
  "zuvor": 7987,
  "beteiligt": 7988,
  "ehr@@": 7989,
  "Cor@@": 7990,
  "sionen": 7991,
  "Leistung": 7992,
  "Irland": 7993,
  "alismus": 7994,
  "Prioritäten": 7995,
  "Com@@": 7996,
  "Nutzen": 7997,
  "Ideen": 7998,
  "ausreichend": 7999,
  "Technik": 8000,
  "2.": 8001,
  "Fotos": 8002,
  "Kat@@": 8003,
  "verbundenen": 8004,
  "ierte": 8005,
  "Altstadt": 8006,
  "wagen": 8007,
  "Größe": 8008,
  "Hintergrund": 8009,
  "ili@@": 8010,
  "dan@@": 8011,
  "ertes": 8012,
  "tlichen": 8013,
  "Priorität": 8014,
  "kannst": 8015,
  "Forderungen": 8016,
  "eingeführt": 8017,
  "Wissen": 8018,
  "darstellen": 8019,
  "zeichnet": 8020,
  "ren": 8021,
  "wirtschaft": 8022,
  ",00": 8023,
  "weit@@": 8024,
  "Status": 8025,
  "Geschäftsordnung": 8026,
  "Afrika": 8027,
  "nissen": 8028,
  "ise": 8029,
  "eit@@": 8030,
  "heraus@@": 8031,
  "ken@@": 8032,
  "Aufnahme": 8033,
  "Sonnen@@": 8034,
  "Großbritannien": 8035,
  "Vereinten": 8036,
  "fähigkeit": 8037,
  "ziert": 8038,
  "private": 8039,
  "welt": 8040,
  "bauen": 8041,
  "pl@@": 8042,
  "see": 8043,
  "ischem": 8044,
  "ek@@": 8045,
  "beginnt": 8046,
  "Fra@@": 8047,
  "einander": 8048,
  "rück@@": 8049,
  "keinerlei": 8050,
  "Einhaltung": 8051,
  "Ziel@@": 8052,
  "Netzwerk": 8053,
  "zuerst": 8054,
  "mp@@": 8055,
  "ro": 8056,
  "1,@@": 8057,
  "Rechnung": 8058,
  "Schlusselwortern": 8059,
  "wunder@@": 8060,
  "27": 8061,
  "Arten": 8062,
  "einsetzen": 8063,
  "Problemen": 8064,
  "uner@@": 8065,
  "Geld@@": 8066,
  "ES@@": 8067,
  "Museum": 8068,
  "zen@@": 8069,
  "af@@": 8070,
  "Versch@@": 8071,
  "Achtung": 8072,
  "ess@@": 8073,
  "Währung": 8074,
  "Sorge": 8075,
  "beinhaltet": 8076,
  "aufmerksam": 8077,
  "folgende": 8078,
  "mehr@@": 8079,
  "Test@@": 8080,
  "Partnerschaft": 8081,
  "lichkeiten": 8082,
  "führte": 8083,
  "Jahrhunderts": 8084,
  "miteinander": 8085,
  "fand": 8086,
  "Euro@@": 8087,
  "IT@@": 8088,
  "umfassende": 8089,
  "karte": 8090,
  "besitzt": 8091,
  "Ã": 8092,
  "verfolgt": 8093,
  "Innen@@": 8094,
  "kulturellen": 8095,
  "siert": 8096,
  "einiger": 8097,
  "Universität": 8098,
  "werke": 8099,
  "buchen": 8100,
  "Kirche": 8101,
  "mor@@": 8102,
  "lang@@": 8103,
  "kosten@@": 8104,
  "hergestellt": 8105,
  "Handel@@": 8106,
  "fall@@": 8107,
  "Moment": 8108,
  "industrie": 8109,
  "Abschluss": 8110,
  "schul@@": 8111,
  "hand@@": 8112,
  "ver": 8113,
  "links": 8114,
  "tten": 8115,
  "akzeptieren": 8116,
  "teten": 8117,
  "bestimmt": 8118,
  "Standard": 8119,
  "Armut": 8120,
  "Vertreter": 8121,
  "Instrument": 8122,
  "stärker": 8123,
  "arbeitet": 8124,
  "Annahme": 8125,
  "Technologien": 8126,
  "Suche": 8127,
  "fahrt": 8128,
  "Gipfel": 8129,
  "San": 8130,
  "erstellt": 8131,
  "ST@@": 8132,
  "Paris": 8133,
  "ds": 8134,
  "unver@@": 8135,
  "freie": 8136,
  "täglich": 8137,
  "informieren": 8138,
  "service": 8139,
  "Kriterien": 8140,
  "Haushalt": 8141,
  "enz": 8142,
  "Krieg": 8143,
  "mar@@": 8144,
  "Qualitäts@@": 8145,
  "Idee": 8146,
  "H": 8147,
  "Bild@@": 8148,
  "tel": 8149,
  "gezeigt": 8150,
  "nahme": 8151,
  "aktiv": 8152,
  "vorgelegt": 8153,
  "eingerichtet": 8154,
  "gesprochen": 8155,
  "geeignet": 8156,
  "unterschiedlichen": 8157,
  "Wahlen": 8158,
  "prüfen": 8159,
  "Kre@@": 8160,
  "sches": 8161,
  "zeiten": 8162,
  "gerecht": 8163,
  "außer": 8164,
  "PC": 8165,
  "dagegen": 8166,
  "Milliarden": 8167,
  "greifen": 8168,
  "ment@@": 8169,
  "genannt": 8170,
  "Druck@@": 8171,
  "Por@@": 8172,
  "land@@": 8173,
  "entweder": 8174,
  "stimme": 8175,
  "Wer@@": 8176,
  "erstellen": 8177,
  "beachten": 8178,
  "Straße": 8179,
  "rechte": 8180,
  "Webseite": 8181,
  "ität": 8182,
  "Kunst@@": 8183,
  "Terrorismus": 8184,
  "gte": 8185,
  "besonderen": 8186,
  "willkommen": 8187,
  "Stabilität": 8188,
  "kaufen": 8189,
  "tisch": 8190,
  "gelegt": 8191,
  "16@@": 8192,
  "Binnenmarkt": 8193,
  "Ö@@": 8194,
  "Prä@@": 8195,
  "berücksichtigen": 8196,
  "gabe": 8197,
  "Produktions@@": 8198,
  "go": 8199,
  "erzielt": 8200,
  "bedarf": 8201,
  "Kor@@": 8202,
  "Me@@": 8203,
  "lich@@": 8204,
  "art": 8205,
  "El@@": 8206,
  "warten": 8207,
  "Vereinbarung": 8208,
  "ll@@": 8209,
  "ve": 8210,
  "RE@@": 8211,
  "lungen": 8212,
  "Ku@@": 8213,
  "Verwaltung": 8214,
  "Klein@@": 8215,
  "speziell": 8216,
  "reich@@": 8217,
  "des@@": 8218,
  "eri@@": 8219,
  "Verpflichtungen": 8220,
  "langen": 8221,
  "for@@": 8222,
  "ters": 8223,
  "trägt": 8224,
  "not": 8225,
  "funktioniert": 8226,
  "Falle": 8227,
  "wor@@": 8228,
  "Staat": 8229,
  "länder": 8230,
  "bet@@": 8231,
  "Anwendungen": 8232,
  "Nor@@": 8233,
  "hoffen": 8234,
  "senden": 8235,
  "Opfer": 8236,
  "ans": 8237,
  "erkennen": 8238,
  "ist@@": 8239,
  "trotzdem": 8240,
  "nationale": 8241,
  "Bundes@@": 8242,
  "Mor@@": 8243,
  "Mittel@@": 8244,
  "ons": 8245,
  "ok@@": 8246,
  "2002": 8247,
  "möglicherweise": 8248,
  "Vi@@": 8249,
  "seines": 8250,
  "Folge": 8251,
  "überzeugt": 8252,
  "W": 8253,
  "tik@@": 8254,
  "entspricht": 8255,
  "geändert": 8256,
  "Produkten": 8257,
  "deten": 8258,
  "schreiben": 8259,
  "ce": 8260,
  "Prozent": 8261,
  "Arbeitsplätze": 8262,
  "sektor": 8263,
  "unbedingt": 8264,
  "gekommen": 8265,
  "Staats@@": 8266,
  "bu@@": 8267,
  "Park": 8268,
  "lose": 8269,
  "ia": 8270,
  "ferner": 8271,
  "Schwierigkeiten": 8272,
  "Der": 8273,
  "ator": 8274,
  "cks": 8275,
  "größere": 8276,
  "wünschen": 8277,
  "The": 8278,
  "fahr@@": 8279,
  "angezeigt": 8280,
  "mindestens": 8281,
  "eindeutig": 8282,
  "isch@@": 8283,
  "Hause": 8284,
  "lin@@": 8285,
  "ah@@": 8286,
  "erinnern": 8287,
  "els": 8288,
  "demokratischen": 8289,
  "zentrum": 8290,
  "privaten": 8291,
  "dringend": 8292,
  "ften": 8293,
  "Anstrengungen": 8294,
  "erungen": 8295,
  "Inhalte": 8296,
  "schutz": 8297,
  "Vorteile": 8298,
  "wesentlich": 8299,
  "richten": 8300,
  "Forschungs@@": 8301,
  "allgemeinen": 8302,
  "Kontakt": 8303,
  "erter": 8304,
  "sicherlich": 8305,
  "entsprechende": 8306,
  "folgt": 8307,
  "Verfassung": 8308,
  "ang": 8309,
  "Zustimmung": 8310,
  "Sta@@": 8311,
  "Frieden": 8312,
  "Außen@@": 8313,
  "zuletzt": 8314,
  "spolitik": 8315,
  "Web": 8316,
  "Organisationen": 8317,
  "Dis@@": 8318,
  "erwähnt": 8319,
  "17": 8320,
  "pp@@": 8321,
  "gene": 8322,
  "wenden": 8323,
  "Arbeitnehmer": 8324,
  "Besuch": 8325,
  "gleiche": 8326,
  "alität": 8327,
  "jederzeit": 8328,
  "vorgeschlagen": 8329,
  "ungs-": 8330,
  "lie@@": 8331,
  "Solidarität": 8332,
  "bel": 8333,
  "technische": 8334,
  "í@@": 8335,
  "ER": 8336,
  "Privat@@": 8337,
  "Energie@@": 8338,
  "amerikanischen": 8339,
  "Sommer": 8340,
  "mehreren": 8341,
  "prozess": 8342,
  "ungsp@@": 8343,
  "endes": 8344,
  "glauben": 8345,
  "vo@@": 8346,
  "Gemeinschafts@@": 8347,
  "zentrale": 8348,
  "liebe": 8349,
  "Rei@@": 8350,
  "sagt": 8351,
  "son": 8352,
  "erhöhen": 8353,
  "fin@@": 8354,
  "Stimme": 8355,
  "fo@@": 8356,
  "une": 8357,
  "Nieder@@": 8358,
  "Linux": 8359,
  "Am@@": 8360,
  "wollte": 8361,
  "AR@@": 8362,
  "gegründet": 8363,
  "lichem": 8364,
  "kur@@": 8365,
  "ban@@": 8366,
  "kom@@": 8367,
  "ana": 8368,
  "19": 8369,
  "Sal@@": 8370,
  "August": 8371,
  "werte": 8372,
  "AN@@": 8373,
  "Garten": 8374,
  "ku@@": 8375,
  "freue": 8376,
  "Familien@@": 8377,
  "schönen": 8378,
  "Kindern": 8379,
  "erenden": 8380,
  "Kunst": 8381,
  "unabhängig": 8382,
  "Konzept": 8383,
  "klare": 8384,
  "sicherheit": 8385,
  "booking.com": 8386,
  "entschieden": 8387,
  "ergreifen": 8388,
  "Einfluss": 8389,
  "gang": 8390,
  "Anspruch": 8391,
  "ün@@": 8392,
  "notwendigen": 8393,
  "Berichte": 8394,
  "Anti@@": 8395,
  "90": 8396,
  "AT": 8397,
  "enn@@": 8398,
  "Volk": 8399,
  "EN@@": 8400,
  "Debian": 8401,
  "erzielen": 8402,
  "Stil": 8403,
  "lö@@": 8404,
  "Leistungen": 8405,
  "vorhanden": 8406,
  "festgelegt": 8407,
  "herzlich": 8408,
  "finanziellen": 8409,
  "wären": 8410,
  "gutes": 8411,
  "Modell": 8412,
  "erfolgen": 8413,
  "sierung": 8414,
  "eingehen": 8415,
  "dliche": 8416,
  "ant@@": 8417,
  "Paket": 8418,
  "stadt": 8419,
  "Herausforderung": 8420,
  "Instrumente": 8421,
  "gra@@": 8422,
  "sage": 8423,
  "ast@@": 8424,
  "Schutz@@": 8425,
  "Angaben": 8426,
  "Vergleich": 8427,
  "ven@@": 8428,
  "300": 8429,
  "Pal@@": 8430,
  "ausdrücklich": 8431,
  "Fuß": 8432,
  "Februar": 8433,
  "Dollar": 8434,
  "möglichst": 8435,
  "str@@": 8436,
  "igen": 8437,
  "Lin@@": 8438,
  "Standards": 8439,
  "Wege": 8440,
  "Wieder@@": 8441,
  "spricht": 8442,
  "veröffentlicht": 8443,
  "etc.": 8444,
  "Irak": 8445,
  "gewinnen": 8446,
  "gh@@": 8447,
  "nächste": 8448,
  "unterschiedliche": 8449,
  "Ausbildung": 8450,
  "Du": 8451,
  "ats": 8452,
  "War@@": 8453,
  "Video": 8454,
  "Veränderungen": 8455,
  "Kenntnis": 8456,
  "Engagement": 8457,
  "ard": 8458,
  "berg": 8459,
  "Sehenswürdigkeiten": 8460,
  "Teile": 8461,
  "Installation": 8462,
  "21": 8463,
  "uren": 8464,
  "Ä@@": 8465,
  "Ban@@": 8466,
  "fonds": 8467,
  "manchmal": 8468,
  "ot@@": 8469,
  "teil@@": 8470,
  "Arbeit@@": 8471,
  "schutz@@": 8472,
  "Kern@@": 8473,
  "produ@@": 8474,
  "bil@@": 8475,
  "Im@@": 8476,
  "ren@@": 8477,
  "globalen": 8478,
  "Augen": 8479,
  "ann@@": 8480,
  "Osten": 8481,
  "verbessert": 8482,
  "Per@@": 8483,
  "anderes": 8484,
  "go@@": 8485,
  "vermeiden": 8486,
  "essen": 8487,
  "iger": 8488,
  "ste@@": 8489,
  "usw.": 8490,
  "sämtliche": 8491,
  "CD": 8492,
  "stehenden": 8493,
  "Partei": 8494,
  "La": 8495,
  "testen": 8496,
  "co": 8497,
  "Schul@@": 8498,
  "Mitteilung": 8499,
  "Zeichen": 8500,
  "euch": 8501,
  "getroffen": 8502,
  "voller": 8503,
  "20@@": 8504,
  "Gegen@@": 8505,
  "daten": 8506,
  "umgesetzt": 8507,
  "Reformen": 8508,
  "Sti@@": 8509,
  "West@@": 8510,
  "Meter": 8511,
  "Anerkennung": 8512,
  "kommenden": 8513,
  "Einrichtungen": 8514,
  "Chance": 8515,
  "jeweils": 8516,
  "alisierung": 8517,
  "ari@@": 8518,
  "stoffe": 8519,
  "fra@@": 8520,
  "darstellt": 8521,
  "Angelegenheiten": 8522,
  "mann": 8523,
  "ad": 8524,
  "gegenwärtig": 8525,
  "erfüllt": 8526,
  "verb@@": 8527,
  "av@@": 8528,
  "Schweiz": 8529,
  "1999": 8530,
  "dete": 8531,
  "tri@@": 8532,
  "überprüfen": 8533,
  "Gar@@": 8534,
  "hinweisen": 8535,
  "möglichen": 8536,
  "Ü@@": 8537,
  "Ski@@": 8538,
  "Wettbewerbsfähigkeit": 8539,
  "Familien": 8540,
  "Vielfalt": 8541,
  "nis@@": 8542,
  "Haltung": 8543,
  "Komfort": 8544,
  "stärken": 8545,
  "teilweise": 8546,
  "tel@@": 8547,
  "Stand": 8548,
  "Besucher": 8549,
  "2.@@": 8550,
  "su@@": 8551,
  "fällt": 8552,
  "arten": 8553,
  "benötigt": 8554,
  "darunter": 8555,
  "sicherzustellen": 8556,
  "bestehenden": 8557,
  "tions@@": 8558,
  "deswegen": 8559,
  "ungs": 8560,
  "Ausschuß": 8561,
  "dienen": 8562,
  "welcher": 8563,
  "Tier@@": 8564,
  "richtigen": 8565,
  "Eing@@": 8566,
  "lä@@": 8567,
  "Menge": 8568,
  "spielt": 8569,
  "Monate": 8570,
  "gelangen": 8571,
  "profitieren": 8572,
  "gebaut": 8573,
  "ex@@": 8574,
  "Durchführung": 8575,
  "verfolgen": 8576,
  "Sektor": 8577,
  "Sprachen": 8578,
  "Medien": 8579,
  "15@@": 8580,
  "mel@@": 8581,
  "70": 8582,
  "handeln": 8583,
  "angeboten": 8584,
  "ideal": 8585,
  "regelmäßig": 8586,
  "Indien": 8587,
  "Not@@": 8588,
  "betont": 8589,
  "Freude": 8590,
  "ole": 8591,
  "Lehr@@": 8592,
  "Geh@@": 8593,
  "ausgezeichnete": 8594,
  "Koordinierung": 8595,
  "positiven": 8596,
  "ang@@": 8597,
  "Kol@@": 8598,
  "Bas@@": 8599,
  "Laufe": 8600,
  "lauf": 8601,
  "hervorragende": 8602,
  "freundlich": 8603,
  "tur@@": 8604,
  "befassen": 8605,
  "hoher": 8606,
  "con": 8607,
  "Dar@@": 8608,
  "ei": 8609,
  "gent@@": 8610,
  "Diskriminierung": 8611,
  "Atom@@": 8612,
  "ev@@": 8613,
  "Grenze": 8614,
  "sse": 8615,
  "ju@@": 8616,
  "Vo@@": 8617,
  "zung": 8618,
  "Dom@@": 8619,
  "seh@@": 8620,
  "age": 8621,
  "Super@@": 8622,
  "anstatt": 8623,
  "kul@@": 8624,
  "kurze": 8625,
  "Pra@@": 8626,
  "jahr@@": 8627,
  "gar@@": 8628,
  "Umständen": 8629,
  "Männer": 8630,
  "Beschäftigungs@@": 8631,
  "lag": 8632,
  "Liberalisierung": 8633,
  "entscheidend": 8634,
  "verstärkt": 8635,
  "Voraussetzung": 8636,
  "igkeit": 8637,
  "schä@@": 8638,
  "bericht": 8639,
  "20.": 8640,
  "historische": 8641,
  "32": 8642,
  "kli@@": 8643,
  "Bedenken": 8644,
  "Erhöhung": 8645,
  "dre@@": 8646,
  "Bus": 8647,
  "Infrastruktur": 8648,
  "è@@": 8649,
  "Bucht": 8650,
  "Jahres@@": 8651,
  "if": 8652,
  "Stellen": 8653,
  "Vorbereitung": 8654,
  "behandeln": 8655,
  "sport@@": 8656,
  "Süden": 8657,
  "esen": 8658,
  "Motor@@": 8659,
  "Ordnung": 8660,
  "Klimawandel": 8661,
  "seitens": 8662,
  "haltung": 8663,
  "Absch@@": 8664,
  "Gesetze": 8665,
  "²": 8666,
  "LE@@": 8667,
  "derartige": 8668,
  "bus": 8669,
  "gemein@@": 8670,
  "riesigen": 8671,
  "tw@@": 8672,
  "ktions@@": 8673,
  "ländlichen": 8674,
  "schicken": 8675,
  "entspannen": 8676,
  "Bewegung": 8677,
  "kleiner": 8678,
  "halt": 8679,
  "Google": 8680,
  "erlauben": 8681,
  "mis@@": 8682,
  "ön@@": 8683,
  "ziemlich": 8684,
  "schnelle": 8685,
  "bild": 8686,
  "Lebensmittel@@": 8687,
  "las@@": 8688,
  "produkte": 8689,
  "Lauf@@": 8690,
  "Dimension": 8691,
  "Hilfs@@": 8692,
  "EC@@": 8693,
  "Reaktion": 8694,
  "zieren": 8695,
  "umgeben": 8696,
  "unternommen": 8697,
  "wodurch": 8698,
  "21.": 8699,
  "ktion@@": 8700,
  "d.": 8701,
  "Kamera": 8702,
  "gewisse": 8703,
  "zurückzu@@": 8704,
  "Verbraucher@@": 8705,
  "angeht": 8706,
  "1997": 8707,
  "Anfragen": 8708,
  "Fer@@": 8709,
  "RO@@": 8710,
  "Doppel@@": 8711,
  "anz": 8712,
  "flo@@": 8713,
  "tene": 8714,
  "IP": 8715,
  "DVD": 8716,
  "Buch": 8717,
  "Gro@@": 8718,
  "pu@@": 8719,
  "ly": 8720,
  "out": 8721,
  "netz@@": 8722,
  "Freunde": 8723,
  "uss@@": 8724,
  "jemand": 8725,
  "Gi@@": 8726,
  "verlieren": 8727,
  "Fälle": 8728,
  "Wettbewerbs@@": 8729,
  "nötig": 8730,
  "3.": 8731,
  "regionale": 8732,
  "sa": 8733,
  "Ambiente": 8734,
  "Details": 8735,
  "manche": 8736,
  "Menschen@@": 8737,
  "mitten": 8738,
  "Frei@@": 8739,
  "akzeptiert": 8740,
  "ors": 8741,
  "fällen": 8742,
  "spiel": 8743,
  "sicherstellen": 8744,
  "erin": 8745,
  "äch@@": 8746,
  "füllen": 8747,
  "wirkt": 8748,
  "öl@@": 8749,
  "technik": 8750,
  "Rad@@": 8751,
  "fen@@": 8752,
  "Unabhängigkeit": 8753,
  "Führung": 8754,
  "Eigen@@": 8755,
  "Spiele": 8756,
  "qualität": 8757,
  "son@@": 8758,
  "werfen": 8759,
  "mei@@": 8760,
  "Fischerei@@": 8761,
  "fein@@": 8762,
  "Rau@@": 8763,
  "besseren": 8764,
  "Flu@@": 8765,
  "wichtiges": 8766,
  "York": 8767,
  "Phase": 8768,
  "kostet": 8769,
  "Material": 8770,
  "staatlichen": 8771,
  "nden": 8772,
  "Diskussionen": 8773,
  "tenen": 8774,
  "Kunde": 8775,
  "entlang": 8776,
  "u.": 8777,
  "0.@@": 8778,
  "gearbeitet": 8779,
  "beträgt": 8780,
  "spezifischen": 8781,
  "harmon@@": 8782,
  "sicht": 8783,
  "Zustand": 8784,
  "tik": 8785,
  "ates": 8786,
  "Generation": 8787,
  "hol@@": 8788,
  "leb@@": 8789,
  "sozi@@": 8790,
  "eröffnet": 8791,
  "enzen": 8792,
  "Anliegen": 8793,
  "preis@@": 8794,
  "Klimaanlage": 8795,
  "tn@@": 8796,
  "Vis@@": 8797,
  "Vertrags@@": 8798,
  "barer": 8799,
  "ic": 8800,
  "übernommen": 8801,
  "sieben": 8802,
  "staaten": 8803,
  "ete": 8804,
  "Zugriff": 8805,
  "Link": 8806,
  "ko": 8807,
  "Bildungs@@": 8808,
  "Gefühl": 8809,
  "Antworten": 8810,
  "Serie": 8811,
  "en-": 8812,
  "....": 8813,
  "Unterschiede": 8814,
  "aktive": 8815,
  "our@@": 8816,
  "betroffenen": 8817,
  "Fin@@": 8818,
  "amp@@": 8819,
  "Königreich": 8820,
  "Teilen": 8821,
  "Fo@@": 8822,
  "Architektur": 8823,
  "We@@": 8824,
  "Standard@@": 8825,
  "min": 8826,
  "inn@@": 8827,
  "Portugal": 8828,
  "allgemein": 8829,
  "oh@@": 8830,
  "Medi@@": 8831,
  "wesen": 8832,
  "Bra@@": 8833,
  "räger": 8834,
  "alter": 8835,
  "erh@@": 8836,
  "dienste": 8837,
  "Mittelpunkt": 8838,
  "h.": 8839,
  "chter": 8840,
  "ehemaligen": 8841,
  "Fi@@": 8842,
  "Verbesserungen": 8843,
  "bal@@": 8844,
  "iel@@": 8845,
  "dis@@": 8846,
  "Strategien": 8847,
  "anschließend": 8848,
  "Kind": 8849,
  "ausgezeichneten": 8850,
  "Tu@@": 8851,
  "wen@@": 8852,
  "Hostels": 8853,
  "Beispiele": 8854,
  "Experten": 8855,
  "Waren": 8856,
  "dir": 8857,
  "Untersuchung": 8858,
  "amerikanische": 8859,
  "stehende": 8860,
  "handel": 8861,
  "Maßnahme": 8862,
  "Pri@@": 8863,
  "All@@": 8864,
  "Ausstattung": 8865,
  "iten": 8866,
  "schließt": 8867,
  "Bank@@": 8868,
  "Maschinen": 8869,
  "Teil@@": 8870,
  "ül@@": 8871,
  "Bahn@@": 8872,
  "produziert": 8873,
  "Verhalten": 8874,
  "Klima": 8875,
  "fort": 8876,
  "Forum": 8877,
  "hinter@@": 8878,
  "Bre@@": 8879,
  "zunehmend": 8880,
  "niemals": 8881,
  "Nein": 8882,
  "Mikro@@": 8883,
  "unmittelbar": 8884,
  "Verkauf": 8885,
  "Einstellung": 8886,
  "tau@@": 8887,
  "Einklang": 8888,
  "falsch": 8889,
  "zentralen": 8890,
  "hab@@": 8891,
  "Kauf@@": 8892,
  "Geist": 8893,
  "chtung": 8894,
  "Pool": 8895,
  "1996": 8896,
  "besitzen": 8897,
  "gegen@@": 8898,
  "Pap@@": 8899,
  "betreffen": 8900,
  "ative": 8901,
  "Schaden": 8902,
  "lern": 8903,
  "Struktur@@": 8904,
  "Bur@@": 8905,
  "weltweiten": 8906,
  "Immobilien@@": 8907,
  "unge@@": 8908,
  "fähig": 8909,
  "tlich": 8910,
  "reich": 8911,
  "zugänglich": 8912,
  "tor": 8913,
  "atoren": 8914,
  "kurzem": 8915,
  "Cas@@": 8916,
  "behörden": 8917,
  "park": 8918,
  "ständige": 8919,
  "präsentiert": 8920,
  "28": 8921,
  "gratulieren": 8922,
  "ktive": 8923,
  "konkreten": 8924,
  "grundsätzlich": 8925,
  "Geräte": 8926,
  "Landwirte": 8927,
  "ktes": 8928,
  "Anbieter": 8929,
  "Lan@@": 8930,
  "egal": 8931,
  "Kl@@": 8932,
  "tsp@@": 8933,
  "Westen": 8934,
  "Schweden": 8935,
  "rasch": 8936,
  "organisiert": 8937,
  "sehe": 8938,
  "mm@@": 8939,
  "yn@@": 8940,
  "hierzu": 8941,
  "wo@@": 8942,
  "wohl@@": 8943,
  "zusätzlichen": 8944,
  "Buchung": 8945,
  "wiederum": 8946,
  "Badezimmer": 8947,
  "begonnen": 8948,
  "Englisch": 8949,
  "4.@@": 8950,
  "eiten": 8951,
  "umfassenden": 8952,
  "Materialien": 8953,
  "interessiert": 8954,
  "Effizienz": 8955,
  "ergeben": 8956,
  "dritten": 8957,
  "eng": 8958,
  "kor@@": 8959,
  "welt@@": 8960,
  "gesellschaft": 8961,
  "Und": 8962,
  "wie@@": 8963,
  "ernst": 8964,
  "alt@@": 8965,
  "ker@@": 8966,
  "beziehen": 8967,
  "Anpassung": 8968,
  "tut": 8969,
  "zw@@": 8970,
  "näher": 8971,
  "Schule": 8972,
  "Kam@@": 8973,
  "rech@@": 8974,
  "Em@@": 8975,
  "Abschnitt": 8976,
  "Erd@@": 8977,
  "City": 8978,
  "fri@@": 8979,
  "eigenes": 8980,
  "einrichtungen": 8981,
  "schönsten": 8982,
  "denden": 8983,
  "sucht": 8984,
  "Kategorie": 8985,
  "führende": 8986,
  "una": 8987,
  "Kollege": 8988,
  "ka@@": 8989,
  "assen": 8990,
  "verz@@": 8991,
  "01": 8992,
  "can": 8993,
  "leiden": 8994,
  "viel@@": 8995,
  "Internationalen": 8996,
  "Küste": 8997,
  "meist": 8998,
  "Fähigkeit": 8999,
  "neuesten": 9000,
  "Col@@": 9001,
  "Teilnahme": 9002,
  "Sitz": 9003,
  "Trans@@": 9004,
  "anerkannt": 9005,
  "offen@@": 9006,
  "gespielt": 9007,
  "Beratung": 9008,
  "Industrie@@": 9009,
  "wünsche": 9010,
  "Gott": 9011,
  "pr@@": 9012,
  "Spezi@@": 9013,
  "Tro@@": 9014,
  "Bahn": 9015,
  "zy@@": 9016,
  "Winter": 9017,
  "sierte": 9018,
  "erscheinen": 9019,
  "Studie": 9020,
  "gender": 9021,
  "Sanktionen": 9022,
  "ff": 9023,
  "AD@@": 9024,
  "derzeitigen": 9025,
  "miss@@": 9026,
  "erweitert": 9027,
  "anlage": 9028,
  "schätzen": 9029,
  "page": 9030,
  "Auftrag": 9031,
  "Amerika": 9032,
  "Allgemeinen": 9033,
  "Willen": 9034,
  "Bau": 9035,
  "bri@@": 9036,
  "tt": 9037,
  "höhere": 9038,
  "gewal@@": 9039,
  "Bestellung": 9040,
  "Versuch": 9041,
  "schau@@": 9042,
  "stoff@@": 9043,
  "Ratspräsident": 9044,
  "AC@@": 9045,
  "sam@@": 9046,
  "Industri@@": 9047,
  "bereit@@": 9048,
  "verbringen": 9049,
  "heraus": 9050,
  "maschinen": 9051,
  "künftig": 9052,
  "Plan": 9053,
  "iz@@": 9054,
  "ener": 9055,
  "3.@@": 9056,
  "wesentliche": 9057,
  "verlangen": 9058,
  "verändert": 9059,
  "ak": 9060,
  "Energi@@": 9061,
  "ase": 9062,
  "Kontroll@@": 9063,
  "hierbei": 9064,
  "Kompromiss": 9065,
  "Veranstaltungen": 9066,
  "Worten": 9067,
  "solcher": 9068,
  "are@@": 9069,
  "ini@@": 9070,
  "genauso": 9071,
  "Farb@@": 9072,
  "St.": 9073,
  "win@@": 9074,
  "gehalten": 9075,
  "Sprach@@": 9076,
  "Geb@@": 9077,
  "Leit@@": 9078,
  "fach@@": 9079,
  "zei@@": 9080,
  "Beifall": 9081,
  "fern": 9082,
  "hängt": 9083,
  "Projekt@@": 9084,
  "karten": 9085,
  "ino": 9086,
  "arbeit@@": 9087,
  "praktisch": 9088,
  "allgemeine": 9089,
  "äl@@": 9090,
  "einzelne": 9091,
  "Pan@@": 9092,
  "stes": 9093,
  "fre@@": 9094,
  "Wirkung": 9095,
  "Mark@@": 9096,
  "Sie@@": 9097,
  "Lie@@": 9098,
  "etten": 9099,
  "serviert": 9100,
  "Niveau": 9101,
  "pre@@": 9102,
  "verloren": 9103,
  "ide@@": 9104,
  "met@@": 9105,
  "Nutzer": 9106,
  "isen": 9107,
  "stri@@": 9108,
  "1998": 9109,
  "ks": 9110,
  "Kritik": 9111,
  "reden": 9112,
  "Umfang": 9113,
  "heits@@": 9114,
  "last": 9115,
  "ec@@": 9116,
  "kürzlich": 9117,
  "gan@@": 9118,
  "zt": 9119,
  "haften": 9120,
  "rau@@": 9121,
  "Formular": 9122,
  "Post@@": 9123,
  "jährlich": 9124,
  "Bes@@": 9125,
  "anbieten": 9126,
  "Center": 9127,
  "Plat@@": 9128,
  "management": 9129,
  "Mu@@": 9130,
  "id": 9131,
  "pres@@": 9132,
  "Hauptstadt": 9133,
  "ba@@": 9134,
  "mat@@": 9135,
  "Gast@@": 9136,
  "ativen": 9137,
  "Aufbau": 9138,
  "Gästen": 9139,
  "Bestandteil": 9140,
  "az@@": 9141,
  "National@@": 9142,
  "erhältlich": 9143,
  "seien": 9144,
  "Eindruck": 9145,
  "log@@": 9146,
  "trifft": 9147,
  "Schlüssel@@": 9148,
  "ständigen": 9149,
  "Syn@@": 9150,
  "Bal@@": 9151,
  "sprache": 9152,
  "spe@@": 9153,
  "führer": 9154,
  "wesentlichen": 9155,
  "einverstanden": 9156,
  "Ereignisse": 9157,
  "gegangen": 9158,
  "Kal@@": 9159,
  "schen@@": 9160,
  "Ruhe": 9161,
  "berühmten": 9162,
  "Mitteln": 9163,
  "Verpflichtung": 9164,
  "13@@": 9165,
  "komm@@": 9166,
  "Bank": 9167,
  "tere": 9168,
  "World": 9169,
  "abhängig": 9170,
  "Globalisierung": 9171,
  "ersch@@": 9172,
  "spezi@@": 9173,
  "lt": 9174,
  "Verständnis": 9175,
  "net": 9176,
  "Internet@@": 9177,
  "Europäer": 9178,
  "nationaler": 9179,
  "asse": 9180,
  "linie": 9181,
  "19.": 9182,
  "Farben": 9183,
  "Firmen": 9184,
  "wichtigste": 9185,
  "deutsche": 9186,
  "Formen": 9187,
  "Voll@@": 9188,
  "Stadtzentrum": 9189,
  "Bewertung": 9190,
  "ländern": 9191,
  "WTO": 9192,
  "ige": 9193,
  "Entwurf": 9194,
  "informiert": 9195,
  "nennen": 9196,
  "Patienten": 9197,
  "Flexibilität": 9198,
  "ó@@": 9199,
  "zählen": 9200,
  "wasser@@": 9201,
  "vers@@": 9202,
  "Angebote": 9203,
  "mag": 9204,
  "Verhältnis": 9205,
  "eigen@@": 9206,
  "Gemeinsamen": 9207,
  "Agentur": 9208,
  "Fisch@@": 9209,
  "Pf@@": 9210,
  "Sinn": 9211,
  "Stärkung": 9212,
  "Lesung": 9213,
  "Methode": 9214,
  "Ju@@": 9215,
  "freiheit": 9216,
  "Zimmern": 9217,
  "stan@@": 9218,
  "Arbeitslosigkeit": 9219,
  "fung": 9220,
  "erhöht": 9221,
  "Bet@@": 9222,
  "liste": 9223,
  "Hinweis": 9224,
  "Ste@@": 9225,
  "Entschließungsantrag": 9226,
  "umwelt@@": 9227,
  "fordert": 9228,
  "Pa@@": 9229,
  "größeren": 9230,
  "welchen": 9231,
  "tä@@": 9232,
  "Unternehmens@@": 9233,
  "führ@@": 9234,
  "vielmehr": 9235,
  "Bahnhof": 9236,
  "früher": 9237,
  "Option": 9238,
  "abgeschlossen": 9239,
  "good": 9240,
  "Reise@@": 9241,
  "Ba@@": 9242,
  "Aussch@@": 9243,
  "Ansch@@": 9244,
  "erfordert": 9245,
  "ner@@": 9246,
  "rein@@": 9247,
  "starken": 9248,
  "Märkte": 9249,
  "Gesetz": 9250,
  "geschieht": 9251,
  "Kom@@": 9252,
  "Si@@": 9253,
  "nten": 9254,
  "Stand@@": 9255,
  "Banken": 9256,
  "Fu@@": 9257,
  "schneller": 9258,
  "UN@@": 9259,
  "­": 9260,
  "wal@@": 9261,
  "Links": 9262,
  "wirken": 9263,
  "Betriebs@@": 9264,
  "ausschuss": 9265,
  "Bedarf": 9266,
  "Sen@@": 9267,
  "Maße": 9268,
  "erg@@": 9269,
  "Griechenland": 9270,
  "0er": 9271,
  "Kosovo": 9272,
  "französischen": 9273,
  "Fre@@": 9274,
  "Monat": 9275,
  "ches": 9276,
  "II": 9277,
  "stattfinden": 9278,
  "hauptsächlich": 9279,
  "bekannten": 9280,
  "ore": 9281,
  "Anteil": 9282,
  "j": 9283,
  "Ha@@": 9284,
  "Gründe": 9285,
  "System@@": 9286,
  "erforderlichen": 9287,
  "übertragen": 9288,
  "dienst": 9289,
  "enst@@": 9290,
  "del@@": 9291,
  "entsprechen": 9292,
  "ton": 9293,
  "Anlagen": 9294,
  "bl@@": 9295,
  "Grenz@@": 9296,
  "Download": 9297,
  "ig": 9298,
  "tsch@@": 9299,
  "relativ": 9300,
  "rechten": 9301,
  "Verfügbarkeit": 9302,
  "Aktionen": 9303,
  "starten": 9304,
  "ette": 9305,
  "Gebiete": 9306,
  "Gesch@@": 9307,
  "Kno@@": 9308,
  "spezifische": 9309,
  "Haus@@": 9310,
  "IC@@": 9311,
  "OS": 9312,
  "lig@@": 9313,
  "weshalb": 9314,
  "Dr.": 9315,
  "ruhigen": 9316,
  "bereiche": 9317,
  "Recht@@": 9318,
  "om": 9319,
  "far@@": 9320,
  "Politiker": 9321,
  "Hel@@": 9322,
  "zes": 9323,
  "spar@@": 9324,
  "stoffen": 9325,
  "begann": 9326,
  "Fe@@": 9327,
  "pfen": 9328,
  "Körper": 9329,
  "breite": 9330,
  "rechtlichen": 9331,
  "licht": 9332,
  "EL@@": 9333,
  "gr@@": 9334,
  "Kraft@@": 9335,
  "Dienst": 9336,
  "enti@@": 9337,
  "traditionellen": 9338,
  "Inseln": 9339,
  "Agenda": 9340,
  "Datenbank": 9341,
  "Ben@@": 9342,
  "les@@": 9343,
  "basiert": 9344,
  "politisch": 9345,
  "diskutiert": 9346,
  "Prüfung": 9347,
  "zweifellos": 9348,
  "schauen": 9349,
  "Musik@@": 9350,
  "Gesetzgebung": 9351,
  "tät": 9352,
  "nochmals": 9353,
  "45": 9354,
  "freundliche": 9355,
  "aktivieren": 9356,
  "reagieren": 9357,
  "Hoffnung": 9358,
  "Mindest@@": 9359,
  "Erde": 9360,
  "Tor@@": 9361,
  "lige": 9362,
  "Kli@@": 9363,
  "Tiere": 9364,
  "ps": 9365,
  "leit@@": 9366,
  "Wi@@": 9367,
  "festgestellt": 9368,
  "bildet": 9369,
  "grün@@": 9370,
  "chs@@": 9371,
  "sieren": 9372,
  "globale": 9373,
  "Überprüfung": 9374,
  "Struktur": 9375,
  "strategie": 9376,
  "Eigenschaften": 9377,
  "entgegen@@": 9378,
  "Licht": 9379,
  "har@@": 9380,
  "hilft": 9381,
  "Bio@@": 9382,
  "Beihilfen": 9383,
  "Pol@@": 9384,
  "zustimmen": 9385,
  "preis": 9386,
  "Anlage": 9387,
  "Fraktionen": 9388,
  "ns": 9389,
  "sorgt": 9390,
  "drittens": 9391,
  "vol@@": 9392,
  "Winter@@": 9393,
  "tigkeit": 9394,
  "Rahmen@@": 9395,
  "jungen": 9396,
  "app@@": 9397,
  "solange": 9398,
  "Br@@": 9399,
  "Har@@": 9400,
  "Hälfte": 9401,
  "Charakter": 9402,
  "Methoden": 9403,
  "Mess@@": 9404,
  "gre@@": 9405,
  "international": 9406,
  "Microsoft": 9407,
  "installiert": 9408,
  "einerseits": 9409,
  "tier@@": 9410,
  "regeln": 9411,
  "Pre@@": 9412,
  "lauf@@": 9413,
  "Kombination": 9414,
  "Öl@@": 9415,
  "bezieht": 9416,
  "öffnen": 9417,
  "Wal@@": 9418,
  "ade": 9419,
  "nah@@": 9420,
  "denk@@": 9421,
  "Tur@@": 9422,
  "weiteres": 9423,
  "junge": 9424,
  "betroffen": 9425,
  "bre@@": 9426,
  "bewegen": 9427,
  "beschäftigt": 9428,
  "Netz@@": 9429,
  "Gegenteil": 9430,
  "Format": 9431,
  "Grunde": 9432,
  "station": 9433,
  "ic@@": 9434,
  "leiten": 9435,
  "ME@@": 9436,
  "Mitgliedern": 9437,
  "stein": 9438,
  "Jo@@": 9439,
  "britischen": 9440,
  "the@@": 9441,
  "Gegensatz": 9442,
  "nachhaltige": 9443,
  "vollkommen": 9444,
  "Beteiligung": 9445,
  "Landschaft": 9446,
  "Sport": 9447,
  "tion": 9448,
  "cu@@": 9449,
  "fel@@": 9450,
  "sofern": 9451,
  "Vorteil": 9452,
  "frei@@": 9453,
  "its": 9454,
  "Foto": 9455,
  "bahn": 9456,
  "Ges@@": 9457,
  "Mag@@": 9458,
  "ings": 9459,
  "kraft": 9460,
  "fan@@": 9461,
  "Unternehmens": 9462,
  "stimmt": 9463,
  "stoff": 9464,
  "gelungen": 9465,
  "00@@": 9466,
  "woh@@": 9467,
  "Amsterdam": 9468,
  "Botschaft": 9469,
  "Treffen": 9470,
  "setzung": 9471,
  "produktion": 9472,
  "Städte": 9473,
  "Services": 9474,
  "Risiko": 9475,
  "zählt": 9476,
  "Empfehlungen": 9477,
  "Tages@@": 9478,
  "hilfe": 9479,
  "Realität": 9480,
  "stand@@": 9481,
  "Min@@": 9482,
  "Such@@": 9483,
  "Rezeption": 9484,
  "Ausland": 9485,
  "Holz@@": 9486,
  "Z": 9487,
  "Dokumente": 9488,
  "location": 9489,
  "Volks@@": 9490,
  "entwicklung": 9491,
  "leg@@": 9492,
  "Mas@@": 9493,
  "höchste": 9494,
  "Teilnehmer": 9495,
  "Stunde": 9496,
  "have": 9497,
  "echte": 9498,
  "stellungen": 9499,
  "ppen": 9500,
  "keiner": 9501,
  "Risiken": 9502,
  "voran@@": 9503,
  "legung": 9504,
  "hafte": 9505,
  "einzigen": 9506,
  "Ap@@": 9507,
  "jüngsten": 9508,
  "rat@@": 9509,
  "Y": 9510,
  "Grundsatz": 9511,
  "Code": 9512,
  "Op@@": 9513,
  "Straßen@@": 9514,
  "Voraussetzungen": 9515,
  "form": 9516,
  "Mehr@@": 9517,
  "Mann": 9518,
  "weg@@": 9519,
  "ierten": 9520,
  "up@@": 9521,
  "ve@@": 9522,
  "Zahlungs@@": 9523,
  "UN": 9524,
  "bildung": 9525,
  "Fenster": 9526,
  "Begriff": 9527,
  "Pu@@": 9528,
  "Verkehr": 9529,
  "Telefon": 9530,
  "Meeres@@": 9531,
  "vorgeschlagenen": 9532,
  "Absatz": 9533,
  "Zahlen": 9534,
  "gewählt": 9535,
  "liefern": 9536,
  "ass@@": 9537,
  "Karten": 9538,
  "straße": 9539,
  "Kultur@@": 9540,
  "markt": 9541,
  "Parteien": 9542,
  "findet": 9543,
  "elle": 9544,
  "solche": 9545,
  "Haupt@@": 9546,
  "em@@": 9547,
  "Unter@@": 9548,
  "th@@": 9549,
  "x": 9550,
  "Service": 9551,
  "Finanz@@": 9552,
  "Website": 9553,
  "Dank": 9554,
  "dessen": 9555,
  "au@@": 9556,
  "einigen": 9557,
  "ung@@": 9558,
  "Deutschland": 9559,
  "7": 9560,
  "setzen": 9561,
  "Kon@@": 9562,
  "fen": 9563,
  "keinen": 9564,
  "sche": 9565,
  "meisten": 9566,
  "glaube": 9567,
  "erte": 9568,
  "Ebene": 9569,
  "Um@@": 9570,
  "nutzen": 9571,
  "x@@": 9572,
  "nichts": 9573,
  "ser@@": 9574,
  "statt": 9575,
  "Region": 9576,
  "weiterhin": 9577,
  "Abstimmung": 9578,
  "Aussprache": 9579,
  "jeden": 9580,
  "ei@@": 9581,
  "indem": 9582,
  "Qualität": 9583,
  "neben": 9584,
  "Punkt": 9585,
  "vielleicht": 9586,
  "Personen": 9587,
  "darin": 9588,
  "Millionen": 9589,
  "bzw.": 9590,
  "Europas": 9591,
  "dürfen": 9592,
  "r": 9593,
  "nen": 9594,
  "us": 9595,
  "her@@": 9596,
  "Schutz": 9597,
  "zusammen": 9598,
  "ihn": 9599,
  "2010": 9600,
  "bereich": 9601,
  "der@@": 9602,
  "weit": 9603,
  "ellen": 9604,
  "recht": 9605,
  "gel@@": 9606,
  "Ar@@": 9607,
  "15": 9608,
  "gehört": 9609,
  "zunächst": 9610,
  "Ge@@": 9611,
  "besser": 9612,
  "nämlich": 9613,
  "nationalen": 9614,
  "ben": 9615,
  "ihrem": 9616,
  "Nähe": 9617,
  "öffentlichen": 9618,
  "ges": 9619,
  "wegen": 9620,
  "per": 9621,
  "Ihrem": 9622,
  "führt": 9623,
  "Arbeits@@": 9624,
  "jede": 9625,
  "ü@@": 9626,
  "ko@@": 9627,
  "Kosten": 9628,
  "50": 9629,
  "schaffen": 9630,
  "2@@": 9631,
  "nach@@": 9632,
  "handelt": 9633,
  "ange@@": 9634,
  "ta@@": 9635,
  "seinem": 9636,
  "ihm": 9637,
  "alten": 9638,
  "ebenso": 9639,
  "schnell": 9640,
  "Ort": 9641,
  "gleichzeitig": 9642,
  "for": 9643,
  "kon@@": 9644,
  "durch@@": 9645,
  "klar": 9646,
  "werde": 9647,
  "sollen": 9648,
  "besten": 9649,
  "op@@": 9650,
  "wichtige": 9651,
  "ö@@": 9652,
  "me": 9653,
  "licher": 9654,
  "ke": 9655,
  "men": 9656,
  "bedeutet": 9657,
  "8": 9658,
  "Form": 9659,
  "etwa": 9660,
  "ne": 9661,
  "will": 9662,
  "be": 9663,
  "ers": 9664,
  "se": 9665,
  "Produkte": 9666,
  "ten@@": 9667,
  "y": 9668,
  "ken": 9669,
  "zi@@": 9670,
  "USA": 9671,
  "ro@@": 9672,
  "Lösung": 9673,
  "Meinung": 9674,
  "or": 9675,
  "Artikel": 9676,
  "se@@": 9677,
  "6": 9678,
  "gen@@": 9679,
  "it": 9680,
  "20": 9681,
  "30": 9682,
  "ischer": 9683,
  "beiden": 9684,
  "st": 9685,
  "Hotels": 9686,
  "is@@": 9687,
  "Präsidentin": 9688,
  "al": 9689,
  "Frauen": 9690,
  "Auf@@": 9691,
  "Leben": 9692,
  "Rolle": 9693,
  "ere": 9694,
  "at@@": 9695,
  "gegenüber": 9696,
  "hatte": 9697,
  "Tag": 9698,
  "ts": 9699,
  "St@@": 9700,
  "Weg": 9701,
  "ch": 9702,
  "ihnen": 9703,
  "pro": 9704,
  "arbeiten": 9705,
  "Richtlinie": 9706,
  "ins": 9707,
  "bar": 9708,
  "internationalen": 9709,
  "Programm": 9710,
  "Al@@": 9711,
  "zwar": 9712,
  "U@@": 9713,
  "ri@@": 9714,
  "unserem": 9715,
  "sen": 9716,
  "end": 9717,
  "europäische": 9718,
  "2009": 9719,
  "sp@@": 9720,
  "ebenfalls": 9721,
  "Seiten": 9722,
  "ie": 9723,
  "et@@": 9724,
  "hinaus": 9725,
  "[": 9726,
  "A": 9727,
  "sogar": 9728,
  "]": 9729,
  "Zu@@": 9730,
  "sicher": 9731,
  "erst": 9732,
  "3@@": 9733,
  "Grund": 9734,
  "Mittel": 9735,
  "it@@": 9736,
  "Situation": 9737,
  "ur@@": 9738,
  "che": 9739,
  "unterstützt": 9740,
  "Internet": 9741,
  "darf": 9742,
  "Kinder": 9743,
  "len": 9744,
  "Software": 9745,
  "gemacht": 9746,
  "aufgrund": 9747,
  "b": 9748,
  "betrifft": 9749,
  "Über@@": 9750,
  "genau": 9751,
  "el": 9752,
  "alen": 9753,
  "Hilfe": 9754,
  "sk@@": 9755,
  "si@@": 9756,
  "politische": 9757,
  "c@@": 9758,
  "w@@": 9759,
  "gesagt": 9760,
  "gilt": 9761,
  "la@@": 9762,
  "weniger": 9763,
  "brauchen": 9764,
  "et": 9765,
  "halten": 9766,
  "macht": 9767,
  "gute": 9768,
  "Haus": 9769,
  "ra@@": 9770,
  "am@@": 9771,
  "ber@@": 9772,
  "ler": 9773,
  "daran": 9774,
  "Zusammenhang": 9775,
  "I": 9776,
  "gerade": 9777,
  "em": 9778,
  "bekannt": 9779,
  "würden": 9780,
  "Richtung": 9781,
  "stand": 9782,
  "hotel": 9783,
  "gemeinsame": 9784,
  "ster": 9785,
  "gi@@": 9786,
  "Schritt": 9787,
  "O": 9788,
  "qu@@": 9789,
  "leben": 9790,
  "c": 9791,
  "lichkeit": 9792,
  "Geschäfts@@": 9793,
  "hin@@": 9794,
  "dadurch": 9795,
  "Zentrum": 9796,
  "Institutionen": 9797,
  "ne@@": 9798,
  "12": 9799,
  "Damen": 9800,
  "gegeben": 9801,
  "Dienstleistungen": 9802,
  "internationale": 9803,
  "bereit": 9804,
  "jedem": 9805,
  "B": 9806,
  "klicken": 9807,
  "gemeinsam": 9808,
  "dar": 9809,
  "ul@@": 9810,
  "danken": 9811,
  "gerne": 9812,
  "mit@@": 9813,
  "besch@@": 9814,
  "da@@": 9815,
  "enten": 9816,
  "wer@@": 9817,
  "Grundlage": 9818,
  "Neu@@": 9819,
  "Mo@@": 9820,
  "warum": 9821,
  "Debatte": 9822,
  "wer": 9823,
  "zudem": 9824,
  "dern": 9825,
  "Berichterstatter": 9826,
  "gemeinsamen": 9827,
  "erforderlich": 9828,
  "China": 9829,
  "2007": 9830,
  "den@@": 9831,
  "spielen": 9832,
  "entwickelt": 9833,
  "100": 9834,
  "unternehmen": 9835,
  "är@@": 9836,
  "tragen": 9837,
  "ieren": 9838,
  "Antwort": 9839,
  "De@@": 9840,
  "mehrere": 9841,
  "rund": 9842,
  "Bo@@": 9843,
  "Erfolg": 9844,
  "tung": 9845,
  "lässt": 9846,
  "Wasser@@": 9847,
  "ing@@": 9848,
  "fahren": 9849,
  "Mitglieder": 9850,
  "ad@@": 9851,
  "Y@@": 9852,
  "Di@@": 9853,
  "Verhandlungen": 9854,
  "Abkommen": 9855,
  "Blick": 9856,
  "Änderungsanträge": 9857,
  "Ma@@": 9858,
  "bel@@": 9859,
  "000": 9860,
  "Umwelt@@": 9861,
  "5@@": 9862,
  "18@@": 9863,
  "hätte": 9864,
  "Platz": 9865,
  "to@@": 9866,
  "US": 9867,
  "weiß": 9868,
  "neu": 9869,
  "bleibt": 9870,
  "sozialen": 9871,
  "tern": 9872,
  "tatsächlich": 9873,
  "gesamten": 9874,
  "denke": 9875,
  "00": 9876,
  "mi@@": 9877,
  "tischen": 9878,
  "wirtschaftlichen": 9879,
  "Gruppe": 9880,
  "ol@@": 9881,
  "gesch@@": 9882,
  "derzeit": 9883,
  "mein": 9884,
  "ner": 9885,
  "fragen": 9886,
  "legen": 9887,
  "kleine": 9888,
  "Haushalts@@": 9889,
  "einzelnen": 9890,
  "weiteren": 9891,
  "hatten": 9892,
  "Ergebnis": 9893,
  "Par@@": 9894,
  "befinden": 9895,
  "Auswirkungen": 9896,
  "Änderungsantrag": 9897,
  "liegen": 9898,
  "Herren": 9899,
  "je": 9900,
  "verfügt": 9901,
  "sen@@": 9902,
  "Grund@@": 9903,
  "é@@": 9904,
  "p": 9905,
  "Bezug": 9906,
  "Ro@@": 9907,
  "us@@": 9908,
  "tigen": 9909,
  "ation": 9910,
  "Gesellschaft": 9911,
  "sei": 9912,
  "km": 9913,
  "Umsetzung": 9914,
  "Rechte": 9915,
  "cht": 9916,
  "darum": 9917,
  "los": 9918,
  "falls": 9919,
  "ur": 9920,
  "Verantwortung": 9921,
  "beispielsweise": 9922,
  "Rates": 9923,
  "ma@@": 9924,
  "notwendig": 9925,
  "oft": 9926,
  "obwohl": 9927,
  "Strategie": 9928,
  "ts@@": 9929,
  "Restaurant": 9930,
  "deutlich": 9931,
  "zurück@@": 9932,
  "Wirtschaft": 9933,
  "gt": 9934,
  "2008": 9935,
  "nächsten": 9936,
  "bleiben": 9937,
  "lange": 9938,
  "T": 9939,
  "Rück@@": 9940,
  "ar": 9941,
  "sprechen": 9942,
  "verwendet": 9943,
  "hoffe": 9944,
  "ak@@": 9945,
  "Gemeinschaft": 9946,
  "voll": 9947,
  "eln": 9948,
  "erung": 9949,
  "Version": 9950,
  "Markt": 9951,
  "Zugang": 9952,
  "Ansicht": 9953,
  "verschiedene": 9954,
  "erten": 9955,
  "jedes": 9956,
  "leider": 9957,
  "Mar@@": 9958,
  "gestellt": 9959,
  "cken": 9960,
  "Gebiet": 9961,
  "schließlich": 9962,
  "weltweit": 9963,
  "Bedingungen": 9964,
  "ene": 9965,
  "Demokratie": 9966,
  "ber": 9967,
  "wenig": 9968,
  "ag@@": 9969,
  "zen": 9970,
  "os": 9971,
  "hin": 9972,
  "Menschenrechte": 9973,
  "Reihe": 9974,
  "zeigt": 9975,
  "Bau@@": 9976,
  "Preis": 9977,
  "Geschichte": 9978,
  "ausge@@": 9979,
  "Liste": 9980,
  "lo@@": 9981,
  "vier": 9982,
  "ermöglicht": 9983,
  "Pro@@": 9984,
  "helfen": 9985,
  "könnten": 9986,
  "X@@": 9987,
  "Vertrag": 9988,
  "Anwendung": 9989,
  "system": 9990,
  "kleinen": 9991,
  "Vorschläge": 9992,
  "enen": 9993,
  "Verfahren": 9994,
  "all@@": 9995,
  "tige": 9996,
  "h": 9997,
  "as@@": 9998,
  "Minuten": 9999,
  "ß@@": 10000,
  "19@@": 10001,
  "Die": 10002,
  "Möglichkeiten": 10003,
  "liches": 10004,
  "S": 10005,
  "gung": 10006,
  "C": 10007,
  "are": 10008,
  "4@@": 10009,
  "Se@@": 10010,
  "ziehen": 10011,
  "erreicht": 10012,
  "Ziele": 10013,
  "fast": 10014,
  "Interesse": 10015,
  "f": 10016,
  "erste": 10017,
  "ter@@": 10018,
  "Management": 10019,
  "A@@": 10020,
  "K@@": 10021,
  "unserer": 10022,
  "jedoch": 10023,
  "seine": 10024,
  "gegen": 10025,
  "Frau": 10026,
  "G@@": 10027,
  "habe": 10028,
  "P@@": 10029,
  "D@@": 10030,
  "Zeit": 10031,
  "neue": 10032,
  "Ihre": 10033,
  "T@@": 10034,
  "and": 10035,
  "s@@": 10036,
  "i": 10037,
  "Ab@@": 10038,
  "finden": 10039,
  "sollte": 10040,
  "ung": 10041,
  "z@@": 10042,
  "Europäische": 10043,
  "bereits": 10044,
  "o": 10045,
  "viele": 10046,
  "wurden": 10047,
  "heute": 10048,
  "H@@": 10049,
  "en@@": 10050,
  "sowie": 10051,
  "keine": 10052,
  "zwischen": 10053,
  "ein@@": 10054,
  "k@@": 10055,
  "Bericht": 10056,
  "be@@": 10057,
  "Ver@@": 10058,
  "damit": 10059,
  "dann": 10060,
  "ab@@": 10061,
  "Parlament": 10062,
  "S@@": 10063,
  "t@@": 10064,
  "immer": 10065,
  "'": 10066,
  "Mitgliedstaaten": 10067,
  "Europa": 10068,
  "anderen": 10069,
  "e": 10070,
  "diesen": 10071,
  "t": 10072,
  "B@@": 10073,
  "An@@": 10074,
  "aus@@": 10075,
  "sch@@": 10076,
  "ohne": 10077,
  "sollten": 10078,
  "Euro": 10079,
  "denen": 10080,
  "Frage": 10081,
  "L@@": 10082,
  "m@@": 10083,
  "machen": 10084,
  "ihrer": 10085,
  "vor@@": 10086,
  "doch": 10087,
  "M@@": 10088,
  "allen": 10089,
  "ter": 10090,
  "geht": 10091,
  "seit": 10092,
  "Rat": 10093,
  "E@@": 10094,
  "e@@": 10095,
  "Ein@@": 10096,
  "in@@": 10097,
  "meine": 10098,
  "Entwicklung": 10099,
  "R@@": 10100,
  "über@@": 10101,
  "denn": 10102,
  "ch@@": 10103,
  "al@@": 10104,
  "b@@": 10105,
  "m": 10106,
  "ent@@": 10107,
  "ungen": 10108,
  "Menschen": 10109,
  ";": 10110,
  "mich": 10111,
  "Jahr": 10112,
  "gen": 10113,
  "2": 10114,
  "f@@": 10115,
  "auf@@": 10116,
  "andere": 10117,
  "zwei": 10118,
  "ungs@@": 10119,
  "bietet": 10120,
  "F@@": 10121,
  "sondern": 10122,
  "dazu": 10123,
  "europäischen": 10124,
  "ganz": 10125,
  "neuen": 10126,
  "Jahren": 10127,
  "jetzt": 10128,
  "d@@": 10129,
  "g@@": 10130,
  "zu@@": 10131,
  "Sch@@": 10132,
  "einige": 10133,
  "n@@": 10134,
  "%": 10135,
  "liegt": 10136,
  "s": 10137,
  "muss": 10138,
  "Ihnen": 10139,
  "haben": 10140,
  "dass": 10141,
  "\"": 10142,
  "-": 10143,
  "auch": 10144,
  "sind": 10145,
  "an": 10146,
  "wird": 10147,
  "als": 10148,
  "um": 10149,
  "(": 10150,
  ")": 10151,
  "oder": 10152,
  "über": 10153,
  "sich": 10154,
  ":": 10155,
  "wie": 10156,
  "bei": 10157,
  "hat": 10158,
  "einer": 10159,
  "diese": 10160,
  "aus": 10161,
  "zur": 10162,
  "einen": 10163,
  "sie": 10164,
  "können": 10165,
  "er": 10166,
  "dem": 10167,
  "werden": 10168,
  "da": 10169,
  "das": 10170,
  "<S>": 10172,
  "</S>": 10173,
  ",": 10174,
  ".": 10175,
  "die": 10176,
  "der": 10177,
  "und": 10178,
  "in": 10179,
  "zu": 10180,
  "den": 10181,
  "von": 10182,
  "ist": 10183,
  "ich": 10184,
  "für": 10185,
  "=": 10186,
  "mit": 10187,
  "auf": 10188,
  "eine": 10189,
  "wir": 10190,
  "es": 10191,
  "des": 10192,
  "Sie": 10193,
  "im": 10194,
  "ein": 10195,
  "nicht": 10196,
  "nach": 10197,
  "wenn": 10198,
  "einem": 10199,
  "Europäischen": 10200,
  "a": 10201,
  "dies": 10202,
  "#": 10203,
  "bis": 10204,
  "an@@": 10205,
  "unsere": 10206,
  "Union": 10207,
  "Hotel": 10208,
  "ten": 10209,
  "en": 10210,
  "möchte": 10211,
  "war": 10212,
  "ge@@": 10213,
  "zum": 10214,
  "vom": 10215,
  "de": 10216,
  "ihre": 10217,
  "eines": 10218,
  "te": 10219,
  "gibt": 10220,
  "Präsident": 10221,
  "unter": 10222,
  "un@@": 10223,
  "the": 10224,
  "EU": 10225,
  "...": 10226,
  "hier": 10227,
  "dieses": 10228,
  "/": 10229,
  "mehr": 10230,
  "nur": 10231,
  "uns": 10232,
  "dieser": 10233,
  "durch": 10234,
  "!": 10235,
  "kann": 10236,
  "so": 10237,
  "aber": 10238,
  "vor": 10239,
  "noch": 10240,
  "am": 10241,
  "Kommission": 10242,
  "wurde": 10243,
  "?": 10244,
  "was": 10245,
  "sehr": 10246,
  "ver@@": 10247,
  "Herr": 10248,
  "daß": 10249,
  "alle": 10250,
  "sein": 10251,
  "müssen": 10252,
  "man": 10253,
  "er@@": 10254,
  "diesem": 10255,
  "während": 10256,
  "ihr": 10257,
  "1": 10258,
  "befindet": 10259,
  "di@@": 10260,
  "r@@": 10261,
  "ens": 10262,
  "Bürger": 10263,
  "gehen": 10264,
  "10": 10265,
  "kein": 10266,
  "wissen": 10267,
  "worden": 10268,
  "Bedeutung": 10269,
  "Kollegen": 10270,
  ".@@": 10271,
  "Kunden": 10272,
  "letzten": 10273,
  "Re@@": 10274,
  "großen": 10275,
  "deren": 10276,
  "Ihrer": 10277,
  "Art": 10278,
  "möchten": 10279,
  "bringen": 10280,
  "ti@@": 10281,
  "davon": 10282,
  "In@@": 10283,
  "ja": 10284,
  "muß": 10285,
  "ale": 10286,
  "y@@": 10287,
  "Seite": 10288,
  "Vorschlag": 10289,
  "n": 10290,
  "h@@": 10291,
  "E": 10292,
  "einmal": 10293,
  "Rahmen": 10294,
  "ert": 10295,
  "Ländern": 10296,
  "wäre": 10297,
  "lich": 10298,
  "Fall": 10299,
  "Verfügung": 10300,
  "I@@": 10301,
  "meiner": 10302,
  "besonders": 10303,
  "Ziel": 10304,
  "große": 10305,
  "i@@": 10306,
  "v@@": 10307,
  "l": 10308,
  "Parlaments": 10309,
  "alles": 10310,
  "seinen": 10311,
  "Daten": 10312,
  "bieten": 10313,
  "J@@": 10314,
  "weiter": 10315,
  "Möglichkeit": 10316,
  "Recht": 10317,
  "sowohl": 10318,
  "Ihr": 10319,
  "unterstützen": 10320,
  "ger@@": 10321,
  "te@@": 10322,
  "on@@": 10323,
  "u": 10324,
  "all": 10325,
  "kommt": 10326,
  "wirklich": 10327,
  "Regierung": 10328,
  "Weise": 10329,
  "eigenen": 10330,
  "ck@@": 10331,
  "dort": 10332,
  "Thema": 10333,
  "Zukunft": 10334,
  "Staaten": 10335,
  "Beispiel": 10336,
  "Ende": 10337,
  "allerdings": 10338,
  "außerdem": 10339,
  "at": 10340,
  "verschiedenen": 10341,
  "Politik": 10342,
  "Un@@": 10343,
  "Uhr": 10344,
  "nehmen": 10345,
  "aller": 10346,
  "chen": 10347,
  "du": 10348,
  "Ihren": 10349,
  "Namen": 10350,
  "isch": 10351,
  "Sicherheit": 10352,
  "or@@": 10353,
  "politischen": 10354,
  "entfernt": 10355,
  "ä@@": 10356,
  "System": 10357,
  "le@@": 10358,
  "Probleme": 10359,
  "j@@": 10360,
  "jeder": 10361,
  "erreichen": 10362,
  "ger": 10363,
  "Fraktion": 10364,
  "&": 10365,
  "direkt": 10366,
  "stellt": 10367,
  "la": 10368,
  "schen": 10369,
  "innerhalb": 10370,
  "könnte": 10371,
  "z": 10372,
  "Kommissar": 10373,
  "führen": 10374,
  "drei": 10375,
  "Problem": 10376,
  "wieder": 10377,
  "deshalb": 10378,
  "seiner": 10379,
  "viel": 10380,
  "ob": 10381,
  "Vor@@": 10382,
  "unseren": 10383,
  "ische": 10384,
  "gut": 10385,
  "Maßnahmen": 10386,
  "u@@": 10387,
  "ge": 10388,
  "wollen": 10389,
  "Be@@": 10390,
  "bin": 10391,
  "enden": 10392,
  "Zimmer": 10393,
  "Arbeit": 10394,
  "Jahre": 10395,
  "kommen": 10396,
  "ihren": 10397,
  "darüber": 10398,
  "el@@": 10399,
  "on": 10400,
  "stehen": 10401,
  "stellen": 10402,
  "sagen": 10403,
  "um@@": 10404,
  "unser": 10405,
  "mir": 10406,
  "vielen": 10407,
  "Welt": 10408,
  "Informationen": 10409,
  "daher": 10410,
  "C@@": 10411,
  "N@@": 10412,
  "lassen": 10413,
  "dafür": 10414,
  "Unternehmen": 10415,
  "schon": 10416,
  "to": 10417,
  "Aus@@": 10418,
  "of": 10419,
  "ischen": 10420,
  "nun": 10421,
  "ern": 10422,
  "W@@": 10423,
  "Lage": 10424,
  "selbst": 10425,
  "sten": 10426,
  "3": 10427,
  "ab": 10428,
  "darauf": 10429,
  "geben": 10430,
  "dabei": 10431,
  "Bereich": 10432,
  "st@@": 10433,
  "weil": 10434,
  "etwas": 10435,
  "beim": 10436,
  "Herrn": 10437,
  "k": 10438,
  "wichtig": 10439,
  "Länder": 10440,
  "5": 10441,
  "de@@": 10442,
  "as": 10443,
  "welche": 10444,
  "es@@": 10445,
  "Unterstützung": 10446,
  "l@@": 10447,
  "ersten": 10448,
  "unter@@": 10449,
  "weitere": 10450,
  "ar@@": 10451,
  "O@@": 10452,
  "Teil": 10453,
  "-@@": 10454,
  "g": 10455,
  "besteht": 10456,
  "eren": 10457,
  "Zusammenarbeit": 10458,
  "a@@": 10459,
  "soll": 10460,
  "Stadt": 10461,
  "ste": 10462,
  "Fragen": 10463,
  "tun": 10464,
  "p@@": 10465,
  "natürlich": 10466,
  "insbesondere": 10467,
  "4": 10468,
  "o@@": 10469,
  "würde": 10470,
  "re@@": 10471,
  "also": 10472,
  "möglich": 10473,
  "sehen": 10474,
  "wo": 10475,
  "Er@@": 10476,
  "li@@": 10477,
  "allem": 10478,
  "liche": 10479,
  "Z@@": 10480,
  "bitte": 10481,
  "tes": 10482,
  "erhalten": 10483,
  "d": 10484,
  "ende": 10485,
  "V@@": 10486,
  "Land": 10487,
  "is": 10488,
  "waren": 10489,
  "steht": 10490,
  "le": 10491,
  "lichen": 10492,
  "einfach": 10493,
  "ges@@": 10494,
  "gab": 10495,
  "bekommen": 10496,
  "innen": 10497,
  "ant": 10498,
  "€": 10499,
  "Su@@": 10500,
  "Ta@@": 10501,
  "ern@@": 10502,
  "ort": 10503,
  "erwartet": 10504,
  "eng@@": 10505,
  "entsprechenden": 10506,
  "Ne@@": 10507,
  "modernen": 10508,
  "ho@@": 10509,
  "ser": 10510,
  "moderne": 10511,
  "Ansatz": 10512,
  "60": 10513,
  "neues": 10514,
  "Präsidentschaft": 10515,
  "2003": 10516,
  "zusätzlich": 10517,
  "äre": 10518,
  "her": 10519,
  "mu@@": 10520,
  "Technologie": 10521,
  "Besch@@": 10522,
  "volle": 10523,
  "zahlen": 10524,
  "res": 10525,
  "welches": 10526,
  "Aufenthalt": 10527,
  "tungs@@": 10528,
  "war@@": 10529,
  "entsprechend": 10530,
  "Kraft": 10531,
  "ou@@": 10532,
  "hält": 10533,
  "IT": 10534,
  "Gründen": 10535,
  "bes@@": 10536,
  "ständig": 10537,
  "häufig": 10538,
  "geworden": 10539,
  "erstens": 10540,
  "room": 10541,
  "Kinder@@": 10542,
  "behandelt": 10543,
  "eher": 10544,
  "Hotel@@": 10545,
  "hoch": 10546,
  "au": 10547,
  "weg": 10548,
  "europäischer": 10549,
[...]
